3eb371143f77cf5b3c6120b03f1084a93ed64d683f47d32f3f58a4113e0d14563f07a3b53ecfe4f73f302bd63f762df33e93a1513f1ac6663f6158c43f36050c3e52ea813b4c65f93f23a78c3f7e8da33e9de9ec3ec6bdd53e8050f03e6fa5153f027ec73f12c1b83f3955303f256de73f07d1c43d510ea03f7aeb813f4c33e53f6e3c003f1d66953e7d1cbe3dfceb653f663de23f09871c3f3e5f453f33d1c83f4827ce3eda1d803f1420153ed1ed993db75b093f455f663f6108c83ef97b1e3d93f5d53f1298603ec61cfb3df0836c3f62b2a53f3ca8033f003f433f6a87e23f39d6823e8e927c3ef8372f3f3feca03f371b1c3d317fcb3e8d14f73f670ad53f699e493d090b1f3f7e60df3f7ffa2b3f4168b43f5f912f3f0ceb7a3e332adb3d996ab93e06f3d13f2870333f3d64c53e688c673f1446db3f2f83fc3ec80bee3f789f5f3ec63db53edfb0a23de5fcb03f1e7b6c3ef583703f2758473f3d49f93e84ec263f5893c03f24eeb93d52a4c43eae73723f4f2cd83e89c16f3e3e84933eb1fdb93dc2c3743f2584283f0c49d13eb4aa3b3e6db3363eb9f57a3f4b1e4d3eb97c593f70fe423f7576da3e6f21a43f62c14f3ee0a3343f29a5433f16629c3f732fa53f4963db3f24daa03f34faf53ea503a33f4d78f93ef6bbae3e8d65fe3f3fa25b3de1c5fa3ee1bc0f3f1157943f0ab1413f0e10a73c6207373ea12a0d
3f09d16b3ecd21643f62bc6f3e08c4ee3eb333773f088fa53f53f3413f2517993f5ee7e63f58cdd53f19e5663dbef1fb3ea51b2e3dbc2cc03ef699dc3dcef5373f5263ca3f77be953f492ba23efea03f3dce188b3ea553c63eaa5fae3f4fc6153eb5ca313e4f3ef03e57e2da3ed3f95f3c8c060c3f07be493ea37fc43e8aedd23f7f1cbd3e5dad7d3f54737b3f1aecf23e3d648f3eb158d83ef729d83f3d7b063e5fc4d43f7a3add3f2be0543e0d9ac93f5c8e753eb2fa353ccf35bf3f311adf3eeb84ca3f3e8c9c3f16f3313ef583233f1a1cab3f1a60343f4de6d33f1ef6323ea108cf3e9a1ae03ed829883f1c0dc13f715b993e95ebbb3e3ee2ef3cc14b083e9951113f30ea193deafce03d3a544a3cb9633d3e9fec993f2b8d323ee96e7f3f4af4c93ebdc28d3f44aae13e59205b3e89436a3d8c0f2c3e9d79fa3ec2b33e3efa3eb93e869baf3ee4378c3e3c8a933f4c2d053ebd15b93f25b2d53f4a360f3f2ab0eb3f2a65ed3f70248d3ef365e43e3c19d83eecb6bd3f5a80983ea6112e3e7991513f18306f3f076ffc3eb849b23eae64753f621dd43f740d4d3f0c9c3e3f6099833f0278243f2d74533f0be36e3f3a42893f024e4e3c7bebc63ede7e963eff84ec3f346b143e5ea2333ea4c10a3f4d9ec53f0127853dd4de1d3ef54dcb3dd6fe893f10c6a33f6b00353f1ef05c3f7690983ed0a01d3f58b3773ef767c9
3d9f48733f3c679e3e07a4f63f389c133f617e173f2af6ab3f04b13e3f20e4eb3f022e653f3381033f5350bd3e3c2dfa3e4e69cc3d05f7353e3df5e03ea27b7f3ee1ea433ebdd4553f7405e43e45a3543daa40f03f030bf33f47185a3ea8deaf3e83b9773f220c083f470bb23e92f1343e51581c3e1f2eb83f7981d03f0abd253f450e623f54a9843e9d0b673eb5bd033f4ed15f3b982bb73e1aa90a3f032a463e3c07ea3f1d234e3dfcf4903f591ad13e7ce0aa3e05da543ef70dc03f3a70753f28ea043e9673083f4b8fb23def16c73ebf344e3f6815e33f37ce263edeaf093dacc4353f4e7c273e264a043f7911733f5d0e163f4c0c743e2a23a13f63d72c3f6d16483f76af583dc80cde3f20de043f3b7e413f19accc3e6b8b643d1c445f3c97412f3efbcf0f3f0036aa3e976f123f01ad633e8454333da49faa3f6191243f2912b63e1ff7493ecf70cf3ea16d7c3f3fd9123f4145433b59df2c3f345a5c3f4da9873f0161883f63b7f43e6367483f216f653e6ba3983f2b0bf63f3605203f59262e3e298b7f3ed0e5313eeff1d53f65f16d3d61fff23f65cd683f5d55393e4d5af13e17c5a23e8db87b3ecb0db33f1c154e3ee80ac63f7d5b023e2a5ff03f6a020e3ec1b3a63f50f08b3f10d9c13e071b843f42b97c3d1d95aa3f47fad63f61d5103f5038e73ed074613ee36d823dc860113ea4b47e3b3bdbfa3e24d84c
3ec0ea523e20ca663f6c4a2d3f0c1f953e98d86c3ef1fbbc3f26bcfd3f7dd5483eb3f2393f0774033e869f9e3f07c7e93f5321633e8d14843da2bed53f12c7383e3412fc3eebf2be3f19b9633f23d11f3ea87e003f44a32f3ea803cc3f00a9a23efae44e3e390d1a3f6498a13e69220d3f34a4e63f1757a13f448d903e58654e3f3a8ded3ea08eaa3e86548d3f3fe5263f31595c3f41a9333d7fd4723f486afd3d38e4ce3e97aa993df85bd93e330af83f50556b3f3f3e093f0e913a3f098a763f558ad73f5398d83ee27a5d3ead6d623e8dcf073e2fcfdf3f2fb99f3f1c50d43ea2be043eb6c5f53eec42ad3e4556d03e65e1363ec618563f04e13b3f21ada23ed986483f732dd13eebbcbc3efe13783ecfd2af3f4cb3fe3f14849c3f726c6f3f71335d3ebada943f43d1613f096adc3e458da93f7280953efd0c973d27a5033de02b9b3e6793e63f1d69a03d6630a33eef1dc33cb17f233f1924fb3f590e583eb0db413f1640993ea23e453eb310013f3b60d03f72c4163d98f9363e8e6b4c3eb689d63f3bcc073f35703c3e99fe0b3f12600d3f52666d3d8066d73ed1077d3ea0e7bb3f4aaae53f2d21963ee04a513f4f0a403f672e103f479d2b3f5ad13b3f7c9fdc3f4b77113edfd4113f1a354f3e0ad1353f4e443c3df652b03f6f1cae3e9d9b813f424a093ed8d95e3f51cf053f090c153d6f05ff3f2ea8c73ef3af0b
3e55d37d3f2862af3f1672633efa30bd3f6598f73f709c063f3287563ebbb4f63d928c963c2392ca3f54c6c13f205cd93e3dd9553f0b2c0d3ea2df103f2810193f0d9a1b3ef523f93e5be44d3f2f6e873f49b0783f4d9d7d3f7bcac43f38729f3efb35fe3ee26f3e3e9185fe3e0037ad3f7297d13ea78b0a3d43b3743f660a953e21b1c93d1db95c3f4a02b13d6549183e2c962a3ce4a6063f4354de3f7dcd073da111003e4e5dcb3ed8c25b3e275f833f694b3d3e8bb7c63e868bdd3f4432e73f4b0e8c3e6244403f38ecd43dae3adf3cb899d53c96acd73e22563a3f51dc4c3f198ec63ef889f13f392b013f0ab9a53f2bb27b3f4d909c3f15de6d3f378f243f51ae483e0761163f68075d3ec21d643f7781453d8f53033ef2dfc23f2a9c973f2a1f763f1eb2ed3f18a4583f0200003f6131db3f566ffb3e5ecbc23f761c113ebfc5783f27322e3e54c4fc3f2365633c000dd53f065f7f3f7dcd923e415fd33f1c53f23e1670443e7b0fa93d9aa8483f0f74073f6e9b2b3ebc60cd3f7da0963f071aa63f1ff4a03f1963f43f0ed3d63e9cafa33f13cb863e45dc123ed9faaf3f049b873f09de1e3f4c61643f00964c3ee1f1a03ce196a83f58e0593f220b683c6f74973eb0573f3ee15b3b3f3dd2633e9803fb3d19a87c3e684a643f2fc44b3f0ee04b3ee17dcf3eaeb86a3ec2df293dd36fac3f28b2a53ec990313f68c7d0
3f6cc39c3deb7aa33df6e3fe3f37971e3f1239113f0e99e13f05e39b3f765e183f6cf11d3dc75a913de0fd123f537f6f3e08318d3f2c15013e2b94fb3f6ff7323ee099cc3e84ac693f498f7b3eaf205b3ec73fb93da823c73f783c113e8615d93e95dbb13edab5483df33c073f0dcd833f4907d93eb1d9e03d79af993ea60b153e052fda3f01df163f0b95ca3f4f949e3df259193f349b803dc88e7f3d16725a3f7d9ef33dfc72133f1fa3b23e81d8c23f279f9a3eba99b63f7e715c3ea9a9f13f42c9cb3f6dd51f3ef30f243d487e8c3f503cac3e94daf83ed3657d3d3965f53ebd06db3f6ad2be3f4eb8d13f0f36833f0fbb063f5442fb3f6dbcb43f1085a33f04772d3f5e75e53e877b503e81a89b3d891f313e9068ff3e770d9a3ed7f2453ee39ce43e38b4ce3e2412993f1b00fc3ecfb3893f6b42413f1772a23f4291333ec7857c3e68f13f3ee74d7b3dcae9323f023b0a3bde166b3f3003493dd716e73f110c113ef2e9943f2febb33e29538e3ec6ea1b3f4a7c403e818a323f26a3513f2add953ee399883f14d9e73dce0c4e3f61b62c3f17a6553e47a9643dc8e9843eefec2c3f14dcea3f210f0a3f5432ef3f044b333f34e0c93e65819a3efab82d3e7276333f25f5b53e10dc9c3eee09453f102eba3f0c07253f4d31f43f399f343ed4a0e43f1ce3783f189fa23f17e28f3f582fc73e8e9c113db85e2f3eea29b1
3eaba2b13eb8786e3dd33b523f42b5103f4d7d5c3f76358b3f29102f3ee32f473e58fbf13f7b16503d9e511f3f5400973e4afde33f61dfb53ed3e55d3e98e65b3f2128193f6c5dcf3df83af43f1361ac3bb686b13f5abffe3e6513943e1167543ed320633dff4fde3b2d81d13f5f02f73e9e44803f5decd63f7a68db3f78e7e73e536ba03e0cf07b3f617f0f3f0ed75e3f2c06e23f3cec513edb235c3e93e6563dd8d37c3e15174d3ec5848a3f59299c3e8a8de93e6451703ece5cee3f2b6cb03e10ea483e8cf10e3f363b023e7b84813edb09713ed5f29c3ef742a93f7382933f311bd73d1a28a53f6640623d3392cf3f1a0c753f79c9a63e8316ff3f375f9e3e17204b3eff530a3ef4210d3f247b0e3f0877363f3bf48d3f472a6d3f0fafa43f6da3cc3e801fa53f5f0d1b3f78b4c73eb71e5a3f631dbb3f3ca9533ef670923ed5a2283f52dbbf3f3b507f3e9e8c683f26cab53f35103d3c6159363eb0afc13e366c643e12f6f73f2b6a1d3f0819c13bbda9063f7575443eda0d6b3f7267a83dab85763ecfe6bc3f2c0fde3f3d2ce93dd976a73f36802a3f670e213ec13da23f2e70ac3f075e263f745be23e18cc533f48d1273e9979343c8ddff43f6488353efb1fe33f232a453f4432123f2bc5243ed6f0f43dbdedd93f516c313f2920673ecfe5f43eed47313db89cf63f372ec73f6bf2333f2c16423f1a4ebc3e22e4bc
3ece3efb3f64504d3e9b8aa23ebca74c3e0275653f630bbd3f4b75963f586b1f3f2870593f036b033f5090473d66b85c3f6e73113ca840533e0f92713e1144763d7adf333f450e933ebe0d3c3e4ea8cb3f27e9e23e1b82f83efb5c643f06a8043d80eb713f0523b63f4d742e3f67e8973eacb7fd3e739cc73f0ae55e3eb2c70b3f3bf7283f12e7a03f6069383e761fdf3e8ce87c3e5486a63f5dfc793eb2a0833f09df0a3f512f773f390f4d3f5e1e043c2dfe0e3e40b9213de694a53eb9ff3c3e0cb7d23f5841583ea719b83d93f3493f22e9da3d9df1e03d55d2463e0ce0813f65e28f3e879c393f51572d3efee7643c286d6d3f0904693f073bb53f7f5b0f3efb0c6a3f4d277e3f3fb49f3f7550103d8352d03f4371d53e9db57e3eee2cc63f1146ae3e1662613f6da5f23e25547f3f1aba453f6d6a113eb96df93f1e5c893e32bf333ddeaca93e6e30953efe9bff3f20d7f33be00a9c3f3d1b4e3f088ea93f30aab53dab43723f76dceb3f2fb0eb3eed1b4c3f3be7ff3e979b8f3c400d8d3f63d4f93e95f9ec3ea6fa693f6c14753f4df6523e40626d3f5b40483dd663ce3e0bcf173f3e49003f4df5933f105b7b3ec45fbd3dbd0ade3e55c8153e8183323b23853b3f3ca92f3ed975c23f3c3f603b7ef83f3ec8424e3ed2dfc23ebba7c93edb76fb3f0fab313ee3ba463dac5cee3f253d093f4c547d3f3578913f5d3abc
3f1389f73f0d68ce3f03e7093f369f623f3dc3e63f7719083f5a71ca3f11828f3ef8b98e3f490a453e3bbdb73f0d09cd3f4e70003e8a97233ef57bbc3e84380e3ed66b293f1899043f1c90d43ecb018b3f6d89313ee5b4af3f5a27b03eb71aa93f6bb8153f7d0f4b3f27fd053dfc49a73d9b31b13ea453753f3361583f2317bc3d9bd7a33e5ded9f3eebb57f3e8ccf0a3e19bedf3f5c0fcb3f559b863e5026e03f768a273d18265c3f6c70273ec840ff3f3962383f2c4dd93f5ca3da3eadd48a3f7c923e3bd484923f58a13d3f615f773f5d21383bf69a3d3e6a7b8d3ecfb2f83df765263b08afaf3d19d21f3f5e2b163f32ce6b3f38fbdd3b2733ad3dc2065e3e1e8d213e9315c13e8f5b6d3ee2c8ca3f2e09233f4c43703ed29e413f75d5353df4a73f3f0bd9ac3f00dad73eecaf8f3e89dd493f61f9733f6039ad3f591e883f6bc82c3f08675b3f6502343f761d753f59ff263ea733143f0542d23f0a73cf3ef6d5e43f5b20b53f50a2733ed107153f3c6d423dd13d113f534d3c3f3099d43f0b56ce3e79571c3e58a2053f1d747b3f5a643e3e06e0423f69e65f3b16ec9d3f064a963c166d253f76fc9e3f7811053ef463303f16a7d63ec6ded73f34de3a3ee0b5f43ee6944b3f7cf0ae3de6dfff3f2a4eea3dc7c5f63e6df49f3e8313bd3f08b16d3efe0bfc3f1ce34d3e8f8fa63eb3226e3f097b053ed494c63f5511f3
3f4a1f343edffaf83c73056e3f6206ab3efafacb3d36e39f3ebf32c03e7dcec73f5c826d3f246f723ab0dc003f7e462d3ef9b23d3e9111643f2d292d3f4e72f93f7d77313f09fe333decc27b3c44ff7a3d44f71e3efd73cd3f61a7603ee180223f162fe43f2f63503ef57d7f3e9441663f50c2583efb4fd83f430aa83f2998a33df8e90f3f0260d43f31675e3f086f643f29621f3e82b9643e3b93323ebae8023f6460173f44b5e93e36a77a3f673a643da4bb573e2312db3f535c613e216b663ec1d62d3f42b2393ec0eda83efd679a3e6c7b803f660fe43e695e7e3da84ec13f2584993f2c1c703dd357cd3ed745f93f70a67a3f77c3993f3868173f56a2ca3ef5a71e3d43de533e2712bb3f1f20d43f193f043d55e94b3f4e4ffe3f1cddb63ed8b05e3f4060ab3f10f6bd3f76b17e3eca49df3f40a1db3f79b0673f7af2053e40bda43eeeb7db3ed0e9593f4067e43d4025373f15d3f73f20b7243ca737b23e88cc723f4035ce3dccf7283e9984fc3e6396a73f6536333ef809d53e93c46a3f13e40e3e8656133f00be243d215aa63d9aef0e3f7846163f09b05d3f484b9d3f5068a63e3f73e43f3f0c3d3ef57c9a3f364a143f2bb72e3f5f36383eb3ce1b3ea312703f5dfafd3f60a40f3ee706fa3f7106d43f138d523f2aa98d3ec8d7693f7ce4e43dd314e83e125e683eaa65ae3f3c123b3f048f3d3f4953bc3eebab4a
3f3366293e2443c63f15710d3de698c93efed3ae3f5939a53f6fb60d3f25c5ab3e326dda3e2d1e583eb0f86a3eba671e3dde2e9a3ea415863f006f273f06a9323ef74b8c3d5823f93f697af13e94f83b3ee4f3e33e89a5703f2fe20b3f2dfdcd3ea9cacc3e0897493e43cb613f63ae663eb261b33dd146903e0373ae3f5f514d3d7cfd973f4cc53e3cfaffc03e74791f3d3c20fa3f07788a3f10649b3e85a0ea3f02666b3e8eb7a33f6963193f7689e03ec94d983da910ae3e7391983f7346bd3eb180603df25cec3d052e803dda08cf3f1fe6523c3f581a3e0e964b3f4e6a423d4d332a3f6595bc3f6147813d61d16a3f412e793f062fbb3f6b80c83e551e893ea794ee3f139a3e3e09571b3e2dc4ad3e60eee83edd9cad3e8d8b153f4ce2ff3e7e506b3f0e301b3f41292a3e9503013f2d4f403e67b4553e97dcfc3eea7a393ecaa1253f5022483ea6f0f43e9b7e0b3d9b34523e2f1f313ee2498d3f67a0073f3b96763f44f7b73d33fd273e0828bd3f17c8a23f01cb683f0923453ee4e2b93efa980f3e3c617f3f268ab13d4791ec3eb86fe23f352ace3f36588b3f2e493b3e0141313f0e34c63d2b8ee43ed100083efda2483e270fa43e2f63753a824e833ebec1653dce35083f6a54f03f51aff73f59464d3e733dfc3e8102cb3db44c043f21fea53f0b3cc53f45e1773f55be653f5d38913d3eccf03f02fc053ddd48fb
3f16ca083f5ef0903f0043b43ea7d8ed3eda6eda3f3943e93ca100693f120ea23e2f15313f64b38d3ef8ec283e3351323ee1ae763eed19a33f438c9c3f38399f3f2d92a03f33ea733e3e77093f58e0193f49bafd3efd3c5d3f3a9d473f41006f3ee3a1583f4aa0f03ef8311e3f6a55033f475e2c3f11e66d3ee24a1b3f2ecb143ec58ed23dbd64173ef64aca3e81692b3f3a0be53f1b76753f4f5b143f40d8be3f6c5c593f608c4f3f3760563ead96373f79645f3f4018693f3124803d44abc43dd23d123e1e5edc3f5d06de3f0dfbea3eff212f3f4c9e1c3f2ab5713f7e50653e1cc97a3f527cd73e4ca17a3f07a9133e20f7093e16e40c3f1523943f052cd33cd3efc43f742cc73f79aa4a3edc08803f3aa7513f0031383cd410653ef870653eb4b6fd3e7926773f6c4a683d15a1ee3f29ccf63e28e7823f0869943e5289223ecb7ec13f6417ef3f73aa503df99d413f2f4d733f6678e63f7b8db93f7fa48b3c9031923f17a5843e679d343f305b653f54b2083ee6a5c83e67c0fb3e6731d93e651a4e3f63ccfd3e4322833f0d22e13ed630a43c835fc33d9fa46e3d1f451d3e3503263f2765073e5dfb313d4662713e27704b3c0b7f493e30137e3cadc8323c0e55643d5d94863ea013a73e1e949b3dc3a0cf3d9a5b2d3f7220c43f37a3b53f1e42df3f6e45163f4b7c4a3eeb63dc3eb8aea63f2564103e93506a3f774e19
3f51b35a3f78c46e3f4254143f3d1f573f7708bc3f0dbf893e92388f3e89f6503f01733e3f560db43f73af433ddec98c3ed3a7093c8fa24a3dd9e2f53e9c843e3f6645e33f09fd463f1d09ff3ee378133f49794c3daa3a2b3efbd2213f2eeac93e89f0cd3f259da23ef05c5b3f4021463f776e1d3ea54e683e5a84dc3f1bab5a3f5b9c653f3961723d098a713ed193f93f0fa42e3e836a263f2de2593e0f71663efc10f73f572f323f1a19213f78f5723c81271c3f2c1bba3f0f11b13eb6bf153f47bce13f35cab33f47e9963f2b24ed3f4ab3043f18ea0e3db8ecbf3f0e30293eda33953f41f4253e13c6313f5852d23f7767cb3efceeb43f42cebf3ebc54af3f71a3ef3f1ed3653c13cfcb3f3e98893f2bb11c3f6ee3223f6bbc2d3e93cca23ec397b83f2420053df4bddc3f4661d83f13546d3e1b0d363e9ed1b53e94113e3d4edb8c3d0580093ef5cdbe3ea1f1373f3f1af23f76e6923f454f963f2896de3e2d75a03d8954253c8c45223f191d3f3f3b3a5c3f6d4de23ecc27d93f6168fa3f3302893f6ffb823f19bbbe3f4e55563e938f773f2655af3ef0f4c03e58cd713f0591113e7582333e80dfa63efee42e3d2ccc233b9f43073ed0648f3f390ad43f3f1ca83f41a77b3f792c043f161b793f05d4fc3f76ab0f3dc856ca3df06aae3f1327603f1881333eb67ead3e3a0f853dfb506c3f63f1003f0e98523ea2cdc8
3efca65f3f07249e3f791c1b3f4f88af3f10d7533edfd2093e8167503f2813f43f1ca1d23f1a6ef13eff8cd93f0324253ed534853f4316313f74720f3f01f60a3ebf70ee3f6fcbb23ec6ac593f58d8773f5716323ead72403ea17c743f6aa2793eff26cd3f2aa8f53e19581e3f06e6ef3f2269b93dc7c48e3eea0b893f539d723d8ce78c3f508cea3f58c97f3e82bcdb3daa58663f070e213e160fa13f694f3f3f02f5df3f47cacf3f5b33653f373a1b3d9c41943f659c253f1edcf43f5a5dd23f581a253f56d9873f7f496a3edc38313f0537d33f1ba3753f60de883f2989f13f6458343dbcc35d3efb254c3e30f3eb3f3f45b93f760c993f2ecc963ed4eb093f1e4b713f7f6a813f6d5af93e5a59283ed562e33f26ed5a3f249da73f5170563ee0ec653f5d802e3e8a3acd3f2681223f2388c43e82780d3f2124443f7a54623f71f19e3f0df1833e8f41643ee134af3ebbdef33f73d45a3e377ee53f620ae33f30245a3f4dad923f5015e83eb021ff3ea5fad03e8a70583f0bd1263f429b5a3f3980e43f6bf0243e490ef73f2a56143f2c661c3eea94cd3f63a3903eaed4013f0f49be3f0c366e3f13d5b03f2d4b923e75db493f0804e33e4da4b93f5b14de3db056143e99ffb93e936ad03f7d6a723f12ea1b3f015a7e3f5440c43f2cda133f2f61de3f57b6ab3f13afeb3ef63e263ef284843f5007853e881a7e3f25fdad
3b83ae073f216c8d3f16d1f03f40e46d3f06a9913e750f7e3ec41b6b3f1376e73e5011ec3f77a0ee3f79c9f13e575cd33d3aa63d3e5303963e0968163f1c7ed03f6167a33da8f8fd3edbe7843e03b5523d55e63d3f4aa5013f415cd43f20d4703a5e8d653f350fd43e9601163de29dd33eefcada3d064d133e425ebe3f21158f3f706e033ed2c7bf3db850ce3f64570d3f03f1f43ebbd1793eebd4283e1371d03f595aca3f538c673f6ff7983f0b46553de732ca3ea1f49c3f28118a3f2bf5af3ed266d43f3e9a073f653e913f1032c93daa25d43dd156563e2197fd3f08804b3f072ae83f5b1d193f413be43e9045ee3f0fd4cd3eeb6c9c3f6942273e4bec8a3ec34b4e3f0fdb303f0420b63f15cd803f2f1f0e3e7020953f07abec3ee862953e80abed3efaaf2f3f35f81a3f3469833f2246033ee6f5b93e8796773ed7553d3f5800273dd1a9f03f531c4b3f2b9c7a3e1777153f4cc1613ea7a7493e1872c93f05151d3f134d293f5fbbe73efd14f73f4380103ee940093f5a85fa3f0b08833de143a73f4dca843e4a4d763e51e96e3f32e16a3df319773daa5f4b3e1e82373f4439dd3f3ddfad3f522bce3e881af43cdf031f3ef600353f2232f33f6ca3f63f083aa73f5d03513e57531b3f767b4b3ec3e4c83f3b93b53f6ce3d93f35835f3e8c521f3e17df5b3b89cc393f76a5c63eb2ccc33f53f6c43f5db57a3edb5fc1
3f0244673f12375f3f7eeacb3da458083ec657e43f4561583f0e5be13f312a2e3f786fc33f1757953f57e3ff3f2435b13e4e27fe3daface03f22b4d43f7d71c73efb07023f72e3d73f423e433e64d83f3e99484d3f6bc0583f4725df3f1711883f3d0aeb3d4ff9fb3f4629ed3ec059e13e9218973eca624e3dba825b3e659eff3e9aa4293e6d2dad3e1fb2e23f2b88fc3bc9d40a3de844a93f2a4ed03ecd08123f63f2d93f50094f3f5733633e1763553e6483a93ed4b8593ec1e79d3f4834203e88ef023f25b92b3e892b293c016cc03e0948603ecd96c03e3482253f1b1c1b3d7e1ab53d971d453f01e8283e73a4a63e9e7dc23d87d3673e383c3b3f6cbbe53f6512f53d95260e3e9a41283f643d3a3d1c39523f7b6ca03f79e6613f6955913efda2f73f55a9523e0041d63f74bcc33f428fac3ede8cb43dad186f3f24b8613f3a35223efc19343e9739993daf35223e72bf883e17646d3dd2a1d03cd772953f253b763e9c3e0c3eb71dc83ea013313f1d93503e0df3893c095fd23f67720f3e7de1033eda87dd3eda55173ed8a9363e8127873f2fe6253e86471b3f1617c03ee3faa53e5b3a413def24af3f0388953decd3a23eeafd8e3d4c80ab3dd160203f0b987f3e8c37583d9f33e33e998d233f24615d3ee805443f31a45b3ebfd98e3f5dba273f6df1353eedcfcd3f010bf13f1c62003eb00bb33f73967e3cc388b6
3f5fd70b3f7ad6d33ee9388e3f54a4d53f1dfe0a3cdad96b3e882b413f50ae673f2457c23c93bc9e3e66de613f6d34453f5f9f4d3eafec0e3f2d70503f0302f73f494c9b3e79ab543f2e18ed3f363ce43f0894b23f13b0053f79e8eb3ee77f993f47a7293f0167f03f60f2043f33ddf73f65296b3e97f5353f10b5263efa620a3e9a6c523f69e5453f2f49fe3edb14423f7abe3e3f1d631e3ec3e2a63eb717623f45906b3f1ba8b43f4a2aa03e7e52173f55dccc3f6ce7e63e90729a3f5241cf3e1c85d23dcd70c53e4139183e7c45273f3e965f3f5d458c3ead71a93f13184f3f3ffcd23f3ad0313ef9098c3dffbf043f0352fb3ec75db83e07a82d3e8869a73ed2c0a73f742a7a3f701fb13f29b8943ecadd2f3e9faf243f68dd163f09f8f13f4ba0303f3119c53ecef9f03c66b6523e2614373cbacb413eceb2073f06a36c3eddaad13a8cf7903a5551573e2eb4e23ec424b83f3b8f1b3f4498463ee3191c3e679ac83f7023863ebf25a83e00404f3dec30de3d0f7a6b3f64476b3e6691313eb40a473f4e3b743d578c083e5f34023e3097123ea61c213f3aa4733f138ac73f46d1bc3f51a00e3f4453613f5fab633d0b0f283f2002aa3e4422053d11e1603eb23d363f45f24d3f1177aa3f0261043ef5a51d3f08ed8a3ee91bd73efeda993ead7a9e3ebf4a103e229a8f3ee792853e8795a93e98212f3f20ac273f42852d
3f7a28a43ef5dcd53f2402053cb0a7dc3e65b96b3e1b52a63f4fd9de3f6119a13ee7815a3f0207243f5149e33edca0ab3e5584a03e0884a13e04685e3f2e02dc3c8a31e53f2ae3263ec522fb3f673bf83f096be73e68fd983f32fa603ee2079b3e76cf963e7ab1843f68a5563ef442ce3f6fcf6b3f5229553d8eb5be3f49716e3f58b4b53f2fe6303f05507f3eafbc673f66476c3ead30143ee73eff3f39f9803f7533903f79d51a3f3c918c3de47e683e83b5c13cee2e4e3e9b114b3ecfa7113e5e5a8b3f7c9a863f0d98333d85e3ef3f67abd43f02fded3ed17ab63e9e2beb3f7cdc543ec110e83f7bc5a53f2dc2493f71f9073eeaaf043e97a69d3f26c3cb3eb043853e0674553ef55d9e3f453f6e3f01ae353d93c3d23f52173e3e336a8b3e17fd413eeb0e323db8c4bd3d795ddc3e32b6113d8938003e9216683daaf8283e26eb1f3c4ebbf13f48e7733e92a7963f6bfe983eb1dfbc3f3d79363f5265743b8b49103dad6fb63ef3a1f53e42b27b3f485d533f2f40993e0fe9ad3e0330c83e0a5eab3f140c463e03d28f3ed674d53f4314883f49e6eb3e168fbe3f314dc13ec8fb323f74f9bf3f5e43a93f7a6dff3f6623833e8286033f0386f23e6c960a3ea3f2693f2fc3373e4ba74b3f5aa6323ec8ca493da40c9a3f2fd1cc3f674cba3ecd3f463c01e3243f0732473e740d5d3f2e92013f33c1853f1a60613f73a74e
3f6332903e473f043e1897b13f4fbfda3f13d6c43c25f72b3e9becfc3f6c8b5f3c91b23b3f7ef1603ed358083ea157f73f433ab33f6a927f3e8fcc413f58ce6e3f27f5693b94f0c33f77c42f3ee445833e661b753ebe1fc03e289d6f3f2af9cc3ef5c5293f4aadb63df2e3513ea708983f1e2f0d3ee86d143e6174bf3f0e0c043f2c5af73f3bc6fe3f43e5ec3f1636603f79968f3e04beb33df25b893f2f61fc3ee681fc3e783f6f3f4bc59b3e9d64803eee5b823e7c4a043f2bb07c3f6a610e3e9ba4033f5e559e3f1f0d713f1e8cbe3edc9bc13f37c95b3ec1feca3dc7f6573f42fb813e0a72103f12778d3f29dff53f66eed73d4c81bc3c94ce263ddac9c83e1d224a3eb76a1f3bc563f43f3963b53ceb90783f7e44293f203f573cac2f873ed3ae5b3f3907a13f14eb653f45b7653eb5f10a3f288b843f53dad53e4dd61d3d74200c3edd813e3f6905433e3b84833f606bf53f27a5083f3a560d3eec83ea3e3896d93d435bef3f3c5ddf3f6740b33f209bb73e9374c63f3321333f4b96703f4724223ec8dca03f5773443e33b1453f29eeae3f574f103d1eca603e6662923f2b20f03f21ea6c3eba6d873e69ba403ed965f63f61061b3aff41043cf552fa3ed5885d3f34fd303e981a103e88e7fa3f0a1e1c3f4df7b03f653e853f69babf3ec874d23f202d213f7885ca3d4998633ea0ca653e656de63f71b63d3f3cdc7b
3f6641ac3edeed5b3f08afd33f74e6a43eb8c8653f31bf233f2a96a53e7d69433f5ed9143e54fee73f2c935e3f5f9b703d47b7de3f243bf23f662db53f1346133c6836ba3f3ec8673f154cd83f08c8b93eb926273f2b6c3e3ec7d1053d906efa3e9bcf6d3f0ac10f3f3933043f0326f83e2dc7c23f200b933f1e31363ee48a193f2810063f7790583ea2c3b63f7633bb3d1626503f11a83b3eba46853e9d3ce83d9dc8cb3f18c5ee3f1e98263ee4e2543f63300f3f4143df3f0fa6a33eefc6ec3cacbeb33ea77f133efad3703f29edea3f5dfe743f2dcfe83f2ec40c3f6d7b0f3f1a77bb3f5d857d3b5fa2e13f7723563f3969043e4c8ce83f29069f3cf159483f1b24503f4a0fcf3f6be3e73e471e313d95487b3ee63fb03de36c9c3d87c6273efadef43be4fd3d3f645aec3e7eb4113e55af513daaf4fb3e9642583f40c5fb3f60c3c33f2ca3333d7fce5f3f6206b03dafd8a63f4d9b423f1c58893b213cbe3f417dc93f5b9b063f36c6ce3e603a8e3ea43d133ed22e623dad15ce3e528fcc3e0833683ed1a5713f2b28e13f3b11d13ee5e1723f75112c3f39a4193f1333a83cb9dc7c3f5164473eb065c13eb9e2aa3f4043093f66d96f3e8e3a093c5f27493f1994583f13b5903f049b273f4854ea3f2b929e3f7ad46e3f55f6153d1dbc8c3eb14e6b3e6230573ec968fd3ebbe3563ee56c563dda473a3e4955733f6dd60b
3f6b90813c50dc583f3086a23f3f9d5a3f5461103eef84313f5da1cb3f6cceb13f448a9c3e7abb013f3224633e80d8673d49d3313d7ce9d33f7f40d83f6e5cbf3f6be3173de04c1f3eca053f3eb7264c3eef816e3f1e5d253ed763a13bf3b2053f2d9be83ee5b9323df71bf13e87598b3eee0b603e687e533c8ce7a43e8984063eead4153f348cff3ecc1f0b3d85b9623ef4440f3d242f5b3f5213ba3f2cc8743f5314233f3292c03ea02af73ed469fd3f0a8f753f0fa18d3e8503373e8a7b1a3e6914363f2d8ac63f45e2ca3f00ddfc3f11a4993eaf4dd13f1284a23e919aec3e8c8c7b3f447ab93f311af33f367ef33d1ef6753ea3c6183f484ff73f2405163dca30013d8a459c3e92a5233f7d0e613ea73ce33f5579283e7900ad3e85ce333f474ed43e4954263f5ef3b93e856fac3eb753303f78b8293dc497233e3920783f043e9d3ddef2c73f0771d13eb11ba13ec5856d3f7a84253f20d1b63f249e643f3f432a3e467d173efea6a93f2ac9ae3e9158e33f509ac23f472eca3f2bdb733de5dba53f2215193ef2b6153f70d5463f3379993f52e7283eab498a3da8b1843d1988d73ec9752b3db32e853ed0e2433f3deaa83f50b8083f14cd683e511b033f5c33133ec1e5773d2df00c3ec61afd3ed797f73e6cd0b03e2038be3f4be8683f0907a43e2600033f1e417f3ec4a1b23f001f8a3f1dcd823f7d76453e51a47d
3e6bb29c3f009b093eb581c23d1b127f3f6b8ccc3ec6a24b3e3147283f5f42a23f34e0aa3f26e88d3e7790153e97611c3f1966b53d9c4cb23ecc123e3eb915513e886e3a3f4eb9413e44f4bb3ef152503ed316b43eebc3d03f465f553f5db4ae3f6654643f6809743c753fbd3f6a7bf83f091f143e54f98f3e27684d3e716bd33f6f92c13f1208b73eede7933f7e57ae3d95bd733f539bb03e98ff0f3f56345a3f234f723ea1d4773f6796743f58e8043d127d373e0da6593e7900ae3f0dc48b3f5cd8283f5ddb0f3f54b93e3f3925553f1dad393f23b0313d1fae783eea6bb93f1d81623f5ec2d23f793eb33f4c7ad83f43447e3df21cd23f3fa8633e871f103e607df03eafda2c3f72f5cd3dd913083f4418b43ec4a49e3f0bc4773dc2c9023f4eff5d3efe597b3ea988853f652f013e3266693d5adf893ee36f703f399dc83f6535cf3f2d2d403edaaf493f69667e3ec4f64e3f595d773f0cd1b63ebbe42e3e2c4eaf3ef395b43ed32c5b3f7c0fe03eb86eac3ef1e2d93e667b8d3f2ba16b3f0c832b3db1af893dbb709e3e998a683f6998ba3eb18f143e6512f43f3c37e03eca83823e4b284a3e83c3dc3f64e8fe3ec1e3173e2402523ef12f923f227f783f68dedb3e68d02f3ee89d833ed66fa83d6baac53f1483233ef01d5c3c7581953f4996353ea65e133f0171f43e184e8e3e5fa2203f3fd1213e5dca3c3f2a9544
3f00131b3e5d48193f1944723e009e793f4f4e5b3f1eca8b3f276a8b3f3c32d33ed0a7fe3d2f6c363f64a8a13f1ff4dc3df61d0f3e9f15a23f38304e3ec0b44c3f0f19483dfb90573f02d7be3f7eb15d3f3f2ee33f6947ce3e5130ba3d50bf9d3f0fee0a3f3475f03db1ee333f5b55d03f62356d3f53bcf83d2fa72a3f5dbf7b3e300b943f7dc6fe3d8a48523f1f961b3f7780f73f2f007e3f2d2bce3e54a7c53da974003e47269b3f4e2d3c3f1b6d543f1ef4253f2522c03e8310823dc22b6e3f4daa493e86b43a3f00de6a3cd25e233f61872f3e6d26c43f5162843f4ce2013f09751c3f7e449d3f4b4c8e3df3bbfe3c16b8923f7bd0533f0b6dca3f216b243e951d263f5cb47f3f712ed93f2b6acb3d9cba873e77073c3f2a83b73f211e1e3f29f51f3f3413b53ebdecab3f795e323de7f9523ed941423e9606c93e366ac23f7bef7d3f4fcccb3f3a25e23f4f9ac93ecbf1d23df831c63f3ded1c3e4c32713eefe2e63e87f3713f30ee8e3ee1d58e3f54d9b63f6a289e3ed6602d3f7b48bf3ec400c13bb9a6803f1482513f0246bc3ec1234a3f1a9dfd3ecee9fb3f0c78f73f30bd203d9313bc3d7fc5873f733cfb3e88a2003f182ae33e8279183f589e983e9b4b1d3ee0ac1a3ebac5ad3ee028813f53cca23e9d123f3f0682613f3facaf3e9a91a83f30c7183f18349c3f50f51d3e58bec33f3338e83e2ff5613eee2979
3f7aab973e72b4f03eb89bd63eb2ca0b3ee913b73e02bc553ee3e20d3f3e90d63f13dc203d8f15083ef7c7383e9def7e3ed4c6103d39b6b93f1a2eae3edb39483c939bdd3f72f86b3f70dc633f59acba3f36dcbd3e3b21963f193cb63e9936633f51c02b3f4c1a473f345e873f74c2743f4320413f0da3dd3f78853a3f5df17b3f5b81b13e2486a73dbb3d683f7f07f03eb75ee03f6b50103f0514ee3ecbeca73f7eb0663f1faa443f0156bd3f0732e03c2e95493e02bfeb3f59b7dc3f6ba01f3f36da243f2652053e3003be3ef007fd3e4324a03f482f8b3f2c4d923ce0c4e63f6def463cad42a93eac818e3ef8a3513e7e6cad3f47aabe3f024a523e9160963e618aea3ebd8df53f1a31773f2e7a6f3f0b31103e57cb9f3f63cdf83df60b923f4097273ee84ab53e85a7943f08c0b23f6937083e9c48a63ec9cc633f54f3353e00b3133f7e15c63f124b353f7291b83f6d762d3ec8cfac3f6298503f40b7e53f49ac6c3d4efda63f1024a93ebb52e33f5151e83f779dab3f2febdf3f3531523f2a8b353f6ac0013db64a793f2e29f03e7121593ed07be23e3cae863dfde4fa3ea25b613ef643053e0f1cfd3f0088303f05bc723ea67bd23c82fbe13ddb8ea13ed329543e8d47533eec46a53e9db5c53f02b50a3f2f727a3ea7e5cd3f7fce8a3f616ab93ec7b5333f19a5713ef70ad43f002fe03f58794a3e96f7b53f1907ba
37f6883a3d5d816c3ddafb343e43f1873f770c683f777e403ec8469e3e9d707f3f6a85b03e0d2d803f2589143ec5a5c33f305a1d3f22f5313e96eebf3eaaeb7e3e4255b23f0229203f06eb163f1cc6713f09814d3f01bbf73f69a4413efaa60c3dabfda93ec25f143f45c0bc3f5498c63b9981ae3f633fc33db9f9103e99d1133e1523883d0ff7a43e82b0f93f0210443f73d5dc3eeb20193f07ed913ea6221f3f56f6273e0763ec3f31ab133f4ce1ab3e02031d3f2dc1fc3e88c1dc3f5ff70a3b9b363a3f07cb3a3c9647213ed558963f1d91093f5fe4c53f446e923d5f8c0e3f54d60b3f16a7773ed686f33f1c1dbe3e3f03ee3f47afbf3f4425c33db528673ed534483d2f41b33f3d954f3f3971363ee7bc433f63a73b3f1a90343da4af253edb21443ef3ba083f3451983dfd42053dc9471b3ed73a543e7250893f526d533f112ca53e1a98953f1230bd3f3d38463edebb153dee8e4f3da2c7fa3eab079c3f4e0f093f43ed9f3f6d86273f077d413f46fd5b3ee051353f23fa963f5858053f40b0c13f7089ff3e8e253f3f1107d13efb64cc3f72ff803eb00c0e3cd5f6d43f0a65ab3e88cb773f089e643e973a2e3f03248f3e4b1c533ea4fe713e5139c23f0b355d3f5fdc123da387ce3f42b0473f5a54b33f5378fd3e04a1a43dec7e113eb772243f6296db3e7ec6d63dd390913e8f9a6d3f7a35e53ec8a6113e175c48
3eea22713e183bee3ea78dbb3e8e15cb3f4071123f6a832f3e3f95be3f42009c3f33739b3f3ac6933f651e633e7d398c3f6045373f07d5343bcef42a3f387dbb3f3633033eeced683e3ab4083eb2f6443e812bd13d1ad1db3d8833c13eaa8c893f20667a3f596f1b3f00b3ae3f5b68373f3ab7c53ec849103e8484f63efa005f3f731f9b3e53016e3f0d5fa23eae70393f2cafb33f446e773f3503c63e6adc9f3ec323d13f627ad93f5320743f14b2b23e8c5e143d32eba23ec998333eb0657f3f78a2b73f5db3c43f244c413f0325d73ecccbee3f05941c3ec771f53f6761b93f594da53d04d0533f484ad23ee0251b3ea6c2cf3edf6a1a3f1b5b003f5a86a63f21969e3e9f4abb3ea6eb743f1b51af3ea593c63ea83d593f5f9c483f5726423ee562983e523ea13f341c593f387d4a3f1d66e43f06e61a3f0f09213f7038223f1448453ed4e25b3f22b6ca3f66b7673e518bb93ed0edb93ee2825e3f5ec90d3f5691483effd7ca3d9756043e21b3253f6ac8913f7941cf3f7b7b5b3ed9a5bd3e2781183f3ed1883f2b317f3f6bc95a3ec97e0c3f7d2a483ec16b3e3eda28573d45ab293ea88c583eb0cb983f46f5633ee142c93e0ecd1d3ee0cc003f412b5f3e0cc4853e7a6dd33f6a85143f7c1aa43f7e68893f3077183efd5c7d3dedfe563e160cea3f50aaf43f7eddc43f745f2c3f19f57a3f425dd13cb3fd893f643a7a
3f1b28173f0fdbcd3e84cdcb3dfa09ac3f5eee823f0d24373f24f3de3f39d8bd3f2708c73f714f3e3edf7a803eb015c03ced07283f36f21b3f1dfbed3edb4add3f6ee3f53f50d0533f07fb0c3f5d0eeb3f3850973eb1d1f23f00be923f1d67cc3f5574083e8eeff13ca090323f4d02c43ec36ef63f14cf573e6adc593f1c6d773f2d7b103db403203f2b2e273f7589393f30d43b3f1503c53ee52aa43f4f82bf3ebe3c993f773aad3f1ba6233dc2ec593dc6f6d53f4af8413e44641a3f7640193f4bf3d03f7e69fe3f6101163f60ae493e9e4f303eeca8443f0852cb3f0225b23ed08ddc3f0ceb783f5eaef93f70a7b33f291c883cc8ee2c3f11ebc23e77c8de3f539da03f5140813d8ff8313f1df6203f3a7b963e116ec93c80fc333e3539c73e9fb0493f6e92143e3e10483df53aac3ebc5fbf3f65d6973e9280f23ead0a553f0958843f0cc9533e0e12f03e85244b3f2c99493e150b103f6762da3ee42e1d3f5d19183ea94b363f4ed9793e0060433ed938cc3f198fe53f11131d3f64775b3e126aea3d8935da3f4896733f711ca53f636af43e733aee3f2489663ee8608a3f4575f23eed791f3dd138be3f0eb8593d65dd483de5ebb93d077fe23f25e2193ef2349d3f1a01553eb90c363ee2b61f3f7bcdc43f1a3e7d3e5e787a3f66a8113f735a043f3634f83ed4bece3f2958063eb993943ec8de6f3f2873373d1151a4
3eba689a3d4d85463d7501523f4543ca3ed55e703d6c5c4c3f563fc53f47fc613e8320423f448c593e7e62ea3f41ec293e4be3f43c018b6e3ec56a1f3f6d2a523f238acf3eb46b703ea250983e74cab03f0ca9823e9041e93e04f05b3ea3d12e3e119ee63f0f4b7a3ee5d12d3e87f5bd3d3d60763f53125a3e9250e33f6a5b833f3ebca73eae924f3f03b55d3f252bb1382c84cc3f33dc643f0569da3e8856013f4524b13f250f633ebd70203f6ca0a13d06e9423eb5d9a23f1d26ca3f2ac3963f2f14203f14ed2f3f71ccc83e049fce3f0e87b83e83ca433f0ad3393f455ce23f2118fe3e5811093e0fbc0b3f5275f03f4a13693f4bf6fb3f002a6c3ddac2783bac5b153e1ef2f33c7b22343f10249f3eaa8e0f3e27abdb3c60b9a73f4b996e3ed005223e6a71b03f26f0663eb43e143f667fc13f03ab223f3e90693f4017e73ed159dd3ef6f5783e15309d3f1e76503f24a2b93f299b1e3ee90d003f5d70083dd611803ec7712c3f31ffc03eba2f333f16e39d3f6f9aaa3f0d0f863f412e103e63d87a3eea77103c5b50533f7f2d7b3ebeb4643e9365fb3d4f09313e59453c3f5e7eb53f18a5a53e41a8e33f309bbc3e8567af3f7113423f08f9c43eada9de3f65618e3f7959223f725c953e12ac053f391b3b3ec40ef93ee540323d1b9d043eefe3043ef3ad073c9289b73eced1563c1dd7b83f1ef2f43f1978a23f7a2276
3f1058b93ef401873f7c82d93f02b2fe3f261ce83e11fbb33ee919263f5477213f710b903efe3bdf3f3024f23e7d65213d85a2ae3f2ad4f43eb27f5c3f60e42f3f6b8c9a3f3d8c4e3f615a003f2fd5503e3aca853efa66543f227a793f63ac7a3f3b8a6c3eb53be63f030b633ed0c6d43f1c1fc33ae6b5333f1478dd3ef28df73ec7349f3f6da1143f62fa333f71ce513eae09a93f7086773f4ade053f2ee0d63f2b41c83ed039003ee15fc63e2e99773d8e74ce3f5d68113f7e85923e7759f33dd341843f4dea263ef845033e3454bf3ebfeb943f6c292d3d36a19e3da0290c3f10b6063e8f45973f0695283d6e603c3f7762943f10f4653e92d06b3e4061403f7f76703e1161d83e697bfd3f3725af3f127eeb3f5861823eda5d253f7261123f2b2ab63f2d91113f537d043f1132993f4af0973e9cb57e3e055b7f3f30daae3f4ac83d3efd3bad3e0be6583f5a88023f3dfc173f02c3833f3473ce3ee2a88b3dc6263d3f0d38d53f38d6403cf6d6f43f2ac5d73f5e9ea73f16acfa3f4466d63f3b773a3f4450f33db567d83f5240e83f76fad13f7c7a3d3e960be53ef67da63f0d11f83eeffb2d3e15b2383e1bc9c33e9fa5a83f0bf41b3ddc84123ea7a76d3f700b343f3cc42c3f23e64e3e49e25c3d76c5d43ecf398b3e95ef293f01227e3ef1e31a3f1c79853d98c07c3e7b068e3f242c063f3660443ed107eb3de73af4
3eb584c23f6757c63e5510753f618e4d3f33872c3e96b83c3f798cfd3f41a0bf3f2cbeab3e80d0543e3849323df5dd073f0982273f7e5f0b3ccb9b213f0f11403ea12bd03f6151133caaebe33ec2fca93e0a7ea43f07ebfc3efcffad3eb1929d3f5731043f5f6ba13ea8f7873d51ba923ed618c33f0183f63f55db963f5892153f483a353ed67f263f50fac23f494bd23f0fed823e8642b83eddf4573c01f4aa3eef31673f2072893f3999063f0f92d03f581ef13eff55293f7e30803f7a11393e3fe7e33f5e690a3f51009e3f02e6e83e8aa3773e26c26d3f33a7973e975b703f4a81003e065bf53e93621c3f1296be3f0e3a653ecf93773f068e933f5383ec3f541c773f7de8023ebd95273ed256223f098fb03d69e3133f7ecca83f5bf55e3e4e87ff3e9413223f20bc443f0bf13a3ead1b723e0ed0203f13b7413f06d2bc3f3e5b713ee888383f3984613e732cd53e2892363e7b22c93e86d8753e39f8ac3f5d33e93ecc08993f76a34e3f496a8b3dadb3e63f7940523f5bee7d3f709c3d3f58d8653f66e8b03f115b0b3f741d813d76e5923e52242e3f0eef353ef5dd963f6481c83edd43c33e13d4ad3d8609173f29a2f53eff1e383ee7ec623f1992f63f6d0f673d2d908b3e6b7b4e3e89f0ab3eef98a73eba35cf3f5281fb3f403cb43f711b2d3ea68da73e0ace313e0085df3f2af9543eaa57473e932b3a3f0e6d3a
3f69ffbd3e39da1d3eb31b7f3f4f4b563f38ebc93effcbf23f5d9c413f50fb283e32551b3e5324113e263da73f252f0a3ed6546e3d8425a23f4815db3dfc57a33edbb2643f5a8f9f3f742d7e3f1a5f383e2d0b313f5b78673ef9d1b73e8967c03f576cf23f1ba4663c9d2eb23f18456f3e578b833ea206673f1fef903e39b2683f05d3ec3f1fb1733f343b6f3e2c26c43f02be273f4a82273f4134283f31998f3ecd3ffb3f009ab13e65343e3f665e973f0b0d443f2477b13eb613cf3f1797ac3f1f5d2c3f3b088f3f3d8eed3f24d9533f5322523ed5da933d145ed23ed31cdb3e8b7eef3f28b0c83f0489fd3e84f2ba3f2af7123ebfe3fe3ebf7ad53f519dc23f6a4edb3f74d4613d97b2783e21905c3f4a9e443f182e583f28b1773e18c8d23ee9af893e3fa0413f49857b3ed1df163f10cd423dc004cb3cb04d7c3f063ab73f5393e43f7f63493f3852e63eedbb3e3dcedce53ed8163d3df8cd293f3790fc3e0b75503f7f51603e4eae843ea439633d64df2b3e70ebe63f284a2e3f1922623e8721fe3f47210b3f52601b3f64008c3e143e0c3f001a923f27298a3eeb37b53e7b61583e8119963ed05e5f3f2f95fc3f6563ec3ee147e43e3c24523ea5e2423db527183f6051f13d9919ed3c2c33ef3e127e663eb960463ed078153d8712023e9850ab3f0c6a183f3c22563f5c0b953daf403a3e9a41cb3f482abd3ec297d8
3ec209403cbba5d83edfe0e33f3c4acd3c88a2d23f7375263f396f603e970d4c3f5ad50d3e8b03a33dccdac53f5684793e17cbae3ec6becd3f678b593c965fb33f3291ab3f5aaca53e04eaf63ec8ed0c3f33165e3e14d4d53f45aafe3efd87ed3f5ba9a23f69f7473ec0bb6f3f6539a03c3770313ef39f2e3ebc7b353f01eb693f3657673f5254323e3d20403f64dd093ee601463f47782e3d86bc3b3f718b0c3dff920a3f2416d63f609e6e3d4ef5e43df2486d3e8c34a63f5e04cf3ecd84b83dc766e43d95f3023e369c6f3f2254143f78eafd3ec27c133c90d3543eb11f983f5f71083f121f9d3e947a7d3eed5b033f4290223f0364173e8e77aa3df1295c3e6038213f1cbb373de9792a3f5904bf3dc844193efb3b7e3f23a0313d342b1c3eefdc813f5b097b3f1a96a93f47f72d3f7eebb63e6fbee53e5e46573f7dfcd23ea473bc3eb09dca3e8beba23f64adca3e3613bd3f729d343d65e52f3f0839603f4d0e833ed935ea3ea5e0b93f74f7083ef2a6a73f49aee03e17f5423e8a79963f11ab443f5cf0ae3f2bfacf3ebecc763ef869023ce85ffd3f4eb8fa3eb3a7c63f77c1453c559a1e3f2c58343ef12f4b3e10e6f63eb3e5a93d9865023eb1445c3e73615e3e84dc993eb4c5423e6d2d4a3f6809c93e71e3103d931df33f48c5623e9276dd3cec182e3e6e038f3c9ba6df3f5197aa3ed70f153f5876ea3f2d0078
3ead490a3d6cfa533f50caae3f013a3c3e9da45f3f11cf123ebed3e63ed8253f3f239d603f087de63ebd0e0e3ee7620b3f27df473ec4aded3e8445793f2e37103e86679e3e0373713f024e183e943a433f1b73073ecb62393f1dc7723ef2787a3f2d3a0c3eca3cd43f0cf8223f1a88773e21fea13f18fdd23f6db15b3f647f773e041ff43f1377173f068a553f5aae5d3eb189ff3f40566c3e8c7cd63f1aa4633f1380a43d7648403e6313803f7d8ce53ed307643caf873b3f5ae8dd3f23608d3f728d753da64a953f3e48ad3e7f3dfb3d07b1353f0db0243e4271203f5b0f953f2b74d53f7394613e7228eb3f15e5523f0442653f60d7fd3f1c00cb3d8336e03bf8fc533f46e11a3e81fb303f6e3b2f3de845fc3f3290373e8f8a403eb728003eb3e3d53e9902f23c64e7c33c02722a3f1e6c963f3baedd3f2b5dbd3db0957a3f5de0f73eb185693d7f02283f06e1a93f2ca3623f25c8663f6bfc0c3e290fe53eec52ff3f1dc37d3f29ec6c3e8ae46e3e5536c93e1d74933e8a237a3f477aa53b9284093f638bbc3ea3a3e13d3e46fa3e7b46183f3ba8ae3f603a9b3d8bfb173ddfb7c93f2694293e801ff83f06cac13eaa19233e4426d03f3537cd3f6866273cd9fa333f25dbf63f7b278f3f70ad0c3ee993503f3b14a13e3834283ecd9bc03d3b07823f0176083d73cb893f380ee73df962c13f33dbcb3f35e48f3f5d3619
3e64f0573f1293993f59a6b83ec2df363e6d77f53f20c5753f7ebee73f13bdff3f4b24213f3fc60b3d7c41f63d1de8173f46d8cb3f580eb53c8436543e39f1a63f156bf13f43ed8e3ea5b9683f10f7f13d71d2cc3d18723d3f4205643f07cfc23ea645e43ec8be163f48ffa73e8643383ea26e1c3eea3e1c3f30b6ab3e54c5a53e1f2db03f03e8b83f6a143d3d2cba6b3c251d333ed1853c3f52b9c33f54dafb3f1024a33f793f773f3271d13e51f9753ae43ebe3e3049c93ebb70bf3f7cbc3f3f58715f3e32f0cc3ec06ee43eff1e093f6398663f532b7c3e4148863ef0b8bc3e2577fd3e82cbaa3f4e78323f5b62673f5226f03eb2bd2e3f14c1b93dd6c8cf3f3e391a3f5ab7883e92d9153e6a1caa3f087dbf3f571be93f7184943f32c7653ec856bd3f7d25043f672ede3eb5064f3e1ddd9c3f3c3dfb3f3af52f3f1508853ef5a3c03db3725f3f3bca463ed5dedf3f27f8013f277df83f0b34f63f4132563ca38c9c3f207dfe3e99341b3f1df1533ee543973f6c0e7e3f6310a23eb4364b3ef57a803f284fc13eb27c483f37869a3f532e923f2d7e8d3aa5a1d03f4d2e823eef8d3a3eb155863f129c1f3f24c7c53f36b6c23f08bdd23f7e26ef3ecff1093f348f6d3dadfe963f75d22a3e666f173f1690833e2885d13f760eed3f1b4c753f7099b73e118c663e78db293f27ed9a3f412c923f587cf83c0cb09c3ef6e5a6
3e0cfcd63f2e91473f440a8a3f0f6c603f4d43453f4fc03a3f5556353e904c353f0712ed3f66bc4e3f0deccc3f5aa8413f34bc473d8284f83ea5fc043f5358993f0f75163f0c22013f0e71bd3ed4bf8f3ea883d93ec64eb73f0a00ea3ddd69c03ef811e03edfb9903f00fe8c3f17ad9d3ec756593c589e443e77943f3ec160b83f565b5f3ed45baf3d995dce3eabf5113e2597983f27cf3e3e4d841b3e05f3423ec20b663f3870c63eb3fcc13f5e73063e87dd163f1f6f043f234b683eedf9aa3d637bc43f1d37043e7567cf3f269c033e03fa863e15dc733eb2e1da3e3b53db3ecb4e473d5804053dc40ba73ee30d5a3ea0160d3ed0dbfd3e8a64db3caf7fcc3f73aa7b3f0603f63d6dae213f2559803d78905d3f6e05263e266cee3f0b77043f41c65f3f67abb13f5d849e3ecb41ad3f1e97593f60ec443f347fa63e6ef5c53f5aa7973db5ea593f67884a3f19ff363f6974433f0e434e3f592bf63f6058983ec928f13f448ef43ecb804b3ef380663da556ac3f0fa2e83cafe0723ed5fb033f1f06d63f6d07643eea06053dbde8743e6f8b743f167bca3ce0263c3eaf7a7f3f6cb8773d2a0bd63f1528833ebd329e3eaba71d3ee16ffd3ece93ef3f7ff9613eeb08c03d2bc5323f5c591f3f2803333f0b86713ca38a353e9106423f4632703f566fe43e3b166f3f0c43803d9af3303f0e04633f7d10ec3f56241d3f162825
3f1c08ef3f46c6583f086dbc3da1e1133d860f043f2370eb3f30f1bf3f16df413f763b6d3f50d3923f3754293cead7b73f0281d63f5d81d43eb8ab753f6239f13d415ba13f767e1e3f05155c3f7a799a3f1c93c93dcf7c413ea483ae3e4527a83db71d1b3f212b6e3f4378443f38dc683f5b83423f1832d03e8535bc3ee397893f2c425b3d87b4f43f49a86f3eec91ca3e8cf1b63f2451ef3f1871253d35f1583de08ac83e35c2d03ec642ef3dbad1623e89ba163ed369e93eff9b6f3e0c84973f6a234e3efc25503ef098cd3e936b003f2b33713d2501fb3f37e2d93ecbc22a3e78e5003ea04f6f3f604ca43ef4cecd3f0eeaa93ed8613a3e9d77023c89979e3f6f56493f5f30633d5206cf3f1501c03d9d25643ed4ebae3e5970093f7c412b3df4299b3f1970313f729ea43eb7f26e3ee68b103f61ef603f07e5983eb041c53f6ab8343f73b8ed3f1b9a903c5d16cb3e8623833e9939ee3f431ae03ea341f03f4deb913db0abf93f24045f3f1e18a03ee4f9fd3e0eca8b3efbb1db3ec75f6d3ef31b173f49852f3f364eb73e20f86f3ebffbfb3ef89eb03eaefc373df965a73e59643e3ecf4dd53e70968e3d8e89643e5eee1c3f0618e23f13abae3e77f85d3f7f42973cd1ad3d3f16cf023f4268e63f6df8093d78236f3ea0c6f93f2407b03d953cf13d7659ed3f5860433f35c1d53d72d1b53e912d4a3f63695f3f459ae1
3f28f8313dd384a53e9969f73f3346983f25c8ac3f1d91eb3f7387f53f18ce7c3eb553893f7be14f3f77c1473eb8a36b3e82b8083edc20873eddedc83f4318983f20fa873d9889df3f5169ec3f2c69c33e94e8d43ed025333f1d3f943f279bc33f2b1e5e3b8c7dd33f6970a83f016a253f0a00473f0073633f0ace7f3e8d0cf33e57c8dd3f16c2f73cb575233f4cecb53eea393a3ec296313f1acb073e897cef3ec824bf3ea749ee3f5356253e4637403db105843f7236413ed824ad3c4e0f6e3eafddee3dce2aa03f752a793f2ca7083efa68c43e80b6793f4fd92c3f0a8b3e3f4f00543f57fb753bda82f83edaf0a13e9393983e740b9f3f60e38c3f1856cc3f5acd5a3f1c2acc3e80f63c3f4cdd643f5a5cdc3f7520a03f507c823e81ae033f53e7fc3e8d11dc3ef32c7f3f2d8a4b3eab78ad3e80a3e03ef4f7703f1906bd3e0046c33e959e8b3f20aba43f6d439d3dcdf1e23f1f1bc83f733bb53ed765063f3e82df3f2a314e3ef66a733f3e29d33e6219a63eedf0693f545e753f3e34663df3bf763ea406a03f51f2243f4dbb513ecd22983c9768223ecaee2d3e88de643db781a03f2a92ad3f419ecc3f00bad63debd17c3f6218a33f246f873f2bf3fc3dd62cfa3f3b3e4b3f7a84533f59f0743f44f82a3c64c57a3e8ba8663ee466753f4f66963ed8723c3f32dd153f26be403f3b63643f16fbc33ebe195c3f6298e5
3efb03113ecd3dab3e315f513d18e9c33f44aaf33e905d183e827ce33f332cde3f78793f3d8641653f00a75b3f3f864d3f5edfa63f5ea73b3f24e7b53ebc65993e1497473e8a37d73f7527c43e30bf1a3d0752a23ebfc2cd3f2fdf663f6edc743dbf7b243f349ed63f3dce823edfdf713d433f943f44a7e23f5c30fa3f5a50693e947ea33eb791543f692a113d9a27873e79d0853f77abb13dc983f03f72d0893f0be91d3e20531c3e817ff03f6799d43e1f48273f69661f3efde82a3eb93bde3e401f133f52ee673d8b422b3d7589883f6e92403f6cfacd3eb8454f3f72dfbd3def87f73f003e1a3e83452d3d467f773f1a9e873e9cc8ec3e0d24813efb09ff3f2c20af3eccc30c3eaf4b423f6d531d3f2b1d5b3f0caf9d3e2821a43f22599f3e3ba3ab3d59f02c3e07cede3f00c8923f06bc383f1ee4bf3f3416093e8e64f53f3c39943f39b2063cdd37563e72e5fd3f7cec973e2e94283f6891f33f472dc23f3bbfbe3ee49df73f7f96783e28f82d3f381ec13ee203073ef782b43f3c80183eb198113ecf3e7d3f26e8633f7732073f03104e3ea5232d3f5ba0773e9d2a4c3da628123f43258a3f3748a93f51b9f33ee390cd3f01f1f03f1d5a303cdd8f6b3ed0f5b13f6977c43f56c35a3e6b7d0b3f0ad85c3f273be83f5495f93f3228cd3ee32b563f56096c3bce33883f706a253f5962383f4ddf5f3ed4104d3f059ac2
3ed6c0dd3f10b2543e95fcf33e1562d83e3fc8333f58db043f4aebf03e940fbc3f50bc463d70e90d3f6291073d5053953e3f80583efce7023ee0e6693d95cb903f3c22083e76a9403e3a07423f2465d83e5984bb3eb17a363f7592933ecfde5e3e92b7333eeae76f3f3f3a533f6e21d93f3f51d43e9b80d93f0b89113e5c62d93ece542d3edf93ff3e23929f3f0068d33ecb64693f2480803f7f40b93d9caca13f7184bb3f18073f3ea3b8c93e8d44f43f1f18373f0f970c3a7f6daa3f1e13aa3cbe17e33f5cb06c3ef2bdef3f51d8063eadfe3c3f0490e93f13c3553f08ee583f2c2e703f32866a3f3bd8cc3ebff2f23f10fba93ea5a3cf3f375bc33ef66f643e2a87143eafc7e73e3d38a53f28ad3d3f6d6b203f13f5f03e98bdfd3ea2e6323f20c0e43f0f2e753f46e0013f2e7e763e00c7b53eda7dcd3f65dedb3f041bb93ef2ef213eee05e13d9fca913ee072c83f65bc6d3e2793ab3e65c04b3efaa4973e9a00bd3f794b5a3d850d1c3f12a1c23e4a1a283e60e3263f770ae63efdbc523f4e83093ec686833f6ab43b3f294cca3f75039a3ef1d95d3f47736e3f5a29073f5ed16f3f7fd0e13dcf59443eb7347a3ed672aa3f70e65d3df6c6ea3f1393be3f1df91e3f497a563f2cd3bf3eed992a3e9f97533e9deecf3f0a80ec3e8754da3f6121fa3daf7d953ddb97623f7aaf943eac664e3f24daee3f7964c13f2ed434
3ea24fa23ed37b943eaee9f93ed0b0ad3f37e6803f7458363d678f473f2d0d7d3f7a038e3e276cb03ec635b23e6678793ec6d47d3ea3d0503d2b2eee3f18c1303f39db903f562b553f57a8a23eb394643f5b0ef53f3982433f5292113ea6a6b03f17f6443f2d40993f0b24f13d5574d33ea939c03f03f4f33f2cbd3a3f7e51fc3f5ce9b03f7498993df6b9103f4f59803f7695e23f7602113e83a5333e4052833f4597f83f684b2a3eb525c53f1a24443d5e63ec3ea2a7743f34ab6d3f7e798e3f7692273e5778c33f34cd303dc5e30b3ef396dd3f1110643f606d843f6aeda13dbe73323ebdaae73f7bc6d13f4a5ec53ed75aaf3f5314b03e9d496c3f3af87d3e91b54c3ebbaa803f0bc7413f55eabe3ef2c7c33f442ea33f3d1e903f3fd28e3f537c613f100fa73f1d80c93f2bd61d3f7c59c93f5d77343f1606083efa69553dbc0b7b3f37b6293f41e1893f3b2ce83e9ff0583f6e5f563e2e6a583f1ca36c3f5ea7133f679d3c3f4603bd3f12b4573f31381a3f4e95873f16954d3e06b72e3f70add23e81f2043f46cd1a3f22b5f93da091c33f70c8173e69977c3e90f1d03eecf4b33e56eafe3ea4f2c63f153faf3d3b177a3ea6745f3f7193d03ee7760a3e9823f73efa838c3f60f4f83f55d6483f3a3eed3f462a213e1f8b6e3f3a2b063f416d803f3c1c013f5d53ae3f7d94723f7695c93df5d9553f31eb913f38d9de
3f0122d13e6cb4b23f5580e63ed4a39b3eeeef823ef455f33f67be093da3e5313ec5fbc33f701df93eaa4c9e3ec10b993f2eef9b3ecaad4d3f0b863a3f54fc783f79fd953ea0336e3f7c23513e76a6623f5caaf33da3455d3f4eeda03e981ccc3da2648c3ee662b53ed1834c3f4d2dbd3f61329c3f0471323f7b6b2a3ea35f113f6740ee3e8f0ef23eab1b183e0800573f6bbff03f5a19643f2e31ec3e8255ff3e89bbd23f7eaebc3f4bdeb23f4e1d3e3f5992fb3d5944293f730a683f5978c93e8f017d3ee37ea13d3abbef3c10aab93f35b8a03f085b073c0118173ecb28a63ed1942d3eb312c43f1765a43ea59d403f7f98723eec43903d7de64d3f4473793d507a033f01cdca3e422da53f184a7a3f29d7993f491f733e9353153e68f9723efe02e63e804ffc3f1c09eb3c93e4e93f46fbd23f06852b3f3aced43e2a95ae3ec9cba13f745b573f0245a73db735723dde284a3f6c576b3d11ce153eb26e393f54ff263e0c98373f51c9063e4a612d3f75067c3e5ca2673f2ab58c3f2e741d3f6450eb3ce386db3eff357c3e4d75cd3e4b96593d94c0693f3861c43ece86cb3d2a87793e3ede3a3eb2e7bd3cffc1b23eb03b8e3f3ab3c43ee1d7463c3f9ffa3d6ba7983ec9cd423f122c5e3e56e4143f0646523f3a41233efc49023f1b225f3f3a11cd3f72ac093e8bbfbf3f74bed43f55c8d83cdcd1f53e33c9ec3f60664f
3f3579ef3efc779c3e29b57a3e4efcda3ea49fab3f6462253d8589c63d692e013f1ed61a3f01a0dd3ec936fb3f1135243f20beaf3f6dda633e4c553b3f1bf1c83f7f4d013f6329ff3e20c4923e4602dc3f6a1fae3c3a088f3dc299503ecc9c363e8ef9803d3dee363f487af23f4b59a73e951c9f3e861fcd3f06e9313e8f7bc13ec46a343f410cff3f05573b3f61375c3d0539e03ee632723f4d74903ef494403e65dee23f452f443eda8b1b3f3a64033eb515c53f5267df3f502b4a3e8e0a6a3e0b15b73dc5df833f5e51cc3ebab2ea3dfec72a3e704fce3f7371493f14eb543ebb7a1f3e8367e53f06c2fb3df012f83f7b685f3e9bd9223f125b783f3e56913ea0dbb13eee05d53ec6ad723f07e2ee3f50bda43eb0d6e33f2a11863e9921513f04faf53f6563093e904ba23f12a2d33f5e1a5d3dbbf7c53f3dd9933f222fb23b8ff3263f4797c93e2d20d43f1655443e2f9aee3ed820ec3f56bdcd3f2df8b43ec8f2723f74acae3ecf27613d793e9c3d04f7c13d52e5323e8821753f1795e23f2d80673ef1d1f73eb5bbbb3d112cfc3f767cba3f193ab73e4ec7323cde3a663d6d45cf3f7683c13f11ec403e3ac4b03ea3ad9c3f3870ef3e04d5823ef7eb9c3f2e32333df2fb863d8de8323f7a5b7d3dd6280a3c7c8ace3f1c1a453ed2604c3c9dd5cb3c87aaa53f6565ef3ddbaa9c3d6e650f3e8246be3f3c8a0f3e7156c2
3f1aa7c43e9469413e89301f3f3890ff3f6d5c223e8af7a93f6a0fb63eea02843ec2e51f3f2d8f853f1f68fe3db79b283e96de173f08d7093d8153283f6a34e73f72cb103ec1386d3f21ca763f22fdd03dbe34e53f284aa13dda40d83f22d1433da7c3773d9434663f3c762d3eb265953ea688a23f5cebfd3f0895383eb8dc153f6cff003f5d969d3ed949103f00a2ec3e8a68d73f3ef86d3f55c9c13e4c14c23f13e79d3f5394db3f1f9c983f184e653d3b6b113d459ddb3ed0fb1a3f0b506c3f477b453f57f07b3db23aaa3f7849e43d2a0f573f77f0df3f5e0a7f3d0b4b213ee7c9f83e81eea93f72abfe3f2297e83f1f33a83e0aeb6b3f377f8d3f0299e43eaf26483ee254803f3f6bb83f4627723f226f993cffcfa93f211c2c3dc346993e553d1f3f37c3233ecf23523ebb7fd63f3ec2ef3ea9adde3f558dec3d13b7813f50db753efa50b63eb132d43f5602a23ee456753edb68313ea0f1ba3d2d416d3d81ade83f0873f43f3035f33eb882c53f41ab553f345c113f0d0ee43d04bcf43e9698e33e8e8d283e1163b63dd3234c3ddd5ccc3f5f49aa3eb827603f41be983e63e1e63f2cee093f598d003ef5341f3f0722cb3edabefa3e25b35e3dd8d2493f6ef0533f2776293d04f59a3f7f95413f35ac263f476bef3f1cbeb63f6bd79a3e64f0a23cc71ee73e237a5d3ebafc6a3f6d2b4f3f54db1f3f3b3ca23e5fa9ae
3eb1161c3f03bae63d2f43f73ea45cd43ef02f603eab40223ec713253ed5b8003f338ee43d9a934b3eb331573e5f47f73f52009c3f0276c23d0933723ee009ad3f0450b03f0dcbf83e7559c73ed397383d2cda543f6da7ee3cd087973f0debdf3e86cc823f1ba6b43ed4361c3f6eb8553f5fa69b3f7fb0893e9f13003f7c07bd3f4b84cd3ca9d96a3edaaf963f606dc63efbb0433de10ac33e860d473f0568103f47e3693f0256243e4c92463eef67ea3f4b39973f74c9a23dc61d3e3f2334473e853bb93f22d61e3f3c86253e8c00373f43bcbd3e8d3fd63f705dd93eb9351e3f426eb43ec72d343f45360c3f720e1c3d568f623d8b7fba3f5ad83a3f24a5e33e2574693f7d09bd3d231dd13f5815603f3fd3673f2a44233f6134c33f5feece3e51566e3f52d8403f4770bb3de347123ef049e83f745aac3dbef6bb3f3beb6b3eca77523e0e87493f5771cb3f677cc53f3e6cca3f5b23893ef625053efe4fa73eb82d143cecec5a3f34840a3f6213453dd693d13ee4d8043f47e8a03f42fce93f6c94883f034dfd3f5826c13e8deb0b3f22800b3e3895563f4a326e3f34d51d3f16d8fd3d9095b63e0a40fd3d184e0e3f3c14ea3d515dfa3f7567fd3f5e24043ea3634a3e81cda83ea7f7e93f3b624c3ea6813e3d7f9fce3f22e9c33db98f183f11aaf43eae19bd3efb6b303f6fb12c3ee6c75a3f0262a23f2e3abd3eefbfa9
3f18c8d83ee2816f3eff16dd3e86c8b23f5c209c3e93cfea3f1cdf243f47ddd13d66bdcb3e23683f3f12e5233d5d6db83f1758663e9453eb3edba4e23ec6c5653eac3aff3f2919863f324de13edb2de43f7b9a633c39dfea3ec409793e196c573d5933bc3dd42fa43f032f9c3eaa1b833ed9cad73f7292b83e6366143ee975573d11075f3f78feb13eeb292f3eaac0b03e9e2d8a3eafd1c53ea27e2a3f1892243f003ab53f7f54cd3ed598383f7c25183e1288013e8333943e8c74203f4457b03db9b18b3f5f91c53ea841193eec4c0c3f1b26993ed2966f3f2cc19c3eb7b9cc3ea242023f1c29e53f6802fc3f18371a3f6d91213f19a4603f41668e3f7ad0293e88d2aa3eeee5d13eb1fd953f7b05423e8da5f23f6e1e813ed70e2a3f2ae51e3ea98e063f68b0f83ea0e7e53ee47c563f155a393dcb122d3f2174db3df228fd3f4181433f2370963f105ee93f5e797e3eac9fec3ed56b8c3ec39aa03e8d36c83f5ea8b53ed53efb3f09916c3f5af7ab3e4471df3eea323f3f5ce4a63f296e213c08e8443f5e6f113e8415013e36f5f63f70b57f3f2b60af3d8ccbf33e74f8613e20bc263e850ce93ebb4a143e2a83a53e5c539b3f41d6293f5818a93f04a0fd3f6997673f62651d3f4e470c3e6ce5973e786d763ebc4abe3f784d003e54b0743f2cf81c3f4f9f8c3f07c2703ed29ce43f0e5efb3f6ebcc63e97aab03e9be23a
3e2477233f5261f53efc2a433dbbb50d3f3e5d203f634cb93f3f3c2a3e64f73b3f00ad833f51fe873e7b77633de43eae3ed35b273f4614693f4bcf783f77b5893d3188d33f2a43ba3ed0b27a3e943c503f5b24163f7cb1263cad38883ec275213db256c43f7ec9dc3f4e92e23eca0bea3eed7cd63efdbaf93de29a1e3f382e9f3e49e8fe3f49f8c43e2862ae3f7b43383f535e6d3f5b9f003f1439253ee9be003e5376803f55110b3e57e92e3edd6cff3e0fb8c13f284dea3d969c863e45cd4c3def78253f352c6e3f145edd3f0fdb213f593d0d3f24162d3f7e9da83ee14ffa3f2b24af3ebd30713f7478f03f25625d3f3e53f63beb5e983f2ed6903f10f1ca3ec8f29d3f5bb1a93f60fea23f000d483f4dce933f1c21be3f39c10f3f250a6a3eb1b1813f0787b33e3d428c3cf153b83e0e90473f47cc5f3f69141f3f6ccdc83f2fb8563f0dc6c73f62a0463e58bc9b3d0f71df3f3764c73e3fe10b3f1954c93f08abb33f6db4783e81a3053f4eb90f3f4157d93f10b0bc3f0f9a113f13678f3e8bbb953f61cd7b3efbb4623f44739d3f1bcbfd3f17a61e3eda3e853f52453e3f6267953eb3eed03e5693a93ee9e79f3e3cd1843e57cb023f3037603ed1efad3f5a11fd3ef6da7a3f1be1193f1e02723e4b44263ea307ce3f01e3663e82da953e9eb7423cb3b0a53ec372c23eb25b193f6efedc3f09cc493f3501843f3dfe51
3e08a0b53f4bafbf3f4c7abf3db79a8d3ea1172c3f6ac69d3e7f03b63ecd823e3f6dfc5b3f6032833f72aac13f18ca353ed565c33e7802863f1436be3e8f62da3f76b95b3f20f0f53f3d3def3c7f73493ef0888e3ed0b56a3d9efa073ebd3c523ede15353f60a4563eecf6773edbecb43f123abb3d22a1af3f18f04b3eb804453f53d6b33f130eb93c2abf993f2a1ed93ea894ed3d3e25603df918933ee4e6583f5605c33d68f3f63ea6e6d33f3150c23f4f32723eea69103ce40f063f5ba9aa3eff612c3e4e83e83ea073a63e1e85133e9853723ed667e43eafdf8c3e513bf83ca273223f0c579c3f305ea23f6ac3ca3e421a6c3f1dc17c3ea7ff403f2fee023e8838623f3cf8b33f60b1c43f6359c73f7bff063f6d5ff43f3ca9ef3e8fc0083f1b33953f3ada173d963de03e0168033f0ed96a3d97b4ae3e83ffd23f63c6b13f3c5d273f74aa4a3f0220af3de6091c3e90b9273f7ed97d3e62ddaa3f185ea23f0ef33d3e6ba46b3de0228c3e6dc0013f60bf873e32b4bf3ee8db803db294e23d3160cf3e75f7103f6b24653e7ce6653f07e0753f4cbe7e3e95f47e3f44e23a3ef970363f69c2213e9a68f43daa08f33f78ec9a3f5feaf43eed0c353e23a3293f51faaf3f4fc4a43f0bf5373ea772393e1df3bc3d95d4fc3f1803e63e5626ae3f0b02cf3f13211d3e094d213e205f353e9a1f433e2e49023d20908a3d2b07de
3df35ce33f44540e3ee200913ebcd7433f084b083f75a8b03f232b783f7439d13e80d5b53f6ab6cb3e44fd593ead3e0a3f10bb813e833ba93f5684883f3e2e8c3f5d820d3cc514b03ed5d36a3f01bd9e3d362f8a3e50674f3ebe0c943f57857e3f6b86223f14257b3eb561203d4e52ca3e51813c3f46485e3d6f0d013f1b933b3ed50fc83f31ca893f1a56de3f3a208a3e0146e53f2d26703f4edbae3f654c683f60ba833e191c4b3f22bf693e4780893e8f79ff3ebb94893f1d75933eb7a3333f3b66533f155d213d9fbb4d39cda8b53f79c5923e0946693e8d4d813f0771533f615cf33eda9b933f7db0ea3e45a50b3f426a573f7d68e63db2460f3dd929c93eead88d3f708e593f0123ab3f2527143f0863923f4f1f793f2416023d8b8ec43ed3ef413e3607aa3f60c3ab3e91b9003f3ce3eb3f7e79ec3f66722f3d9108483f3351c83eca03823ecc02253f0c3fe63f0c6f8c3bcac23a3f3d26ad3eca44da3ebc1b093deb9adc3f37fd583f3fd4943e62c5a73f5c7bbc3f6ec3f33f1d0f883f036ee73f17a0853d3cb39c3d20adf43f0395913dc588233f622a303d86c7e83f3d08273f6b33953cc02ce53d22ee463f5c080d3f0c2b713f31a3c13f1682373f3b0c6e3e642a853f4d22ca3f720c293ecea2743e8230c63efb69843f2afb353f5ddc5f3f71f6a43f43d75d3e3da0a73c5bb7623f627d213ed502d13f5d49a7
3f18a2b83eb11b813f7a397b3f4fec993f5deafb3ee64dbe3f430bdb3f389fd03e6028613f42c2da3f6b35ef3f308f4c3f346bef3f1019e23f5d71683d094b873f57dd553dd3003b3ed8ef903e319c4e3f142b2c3e72bd313f0fb7ca3e97da0e3e22fa6b3e9d9a5b3f4410423f16f4123f249c543f64790e3da4040f3f2d52fa3ef3e8203dc5f8d73e250e213d80db443d9771d13e4720913ec6b61c3f7c5dfc3f26b7a63f0bc4093ea73b7f3ee85fe83f68fb413d986a633e5a90373dd54e983f64a8cd3f0013903da61f3e3ed904323f5d87833e748c453efb59403f24dc263f38f2ac3f7abfbf3f097a183ee46dd93f14871e3f1e2a093e4b754c3d03d3e73ecd83503df8ed3e3e0c99313ebdcadd3f520b393f5403b33f673d583f0181d63f69d08f3d8992b23e2805f63f0b99bd3d23260a3b857c1b3f27859d3f4fd3643e0bff553f07e6843f16baa33f6bf2e53f2d1fed3ebbfddc3f5008f43e82edf93de239183e3067663f0bddee3f6667103e6fca043f6704453df1d4e03f1a03c53f448f983d649a683f29ee873d86cdb43f26bb253f32f2733f2e680d3d1a5e503f6328723e13f1753e95f1583f4c85ef3f148ee23e870b7a3ee196253f73d88a3f3200f93dda11453eaf6a1d3f03934e3f7247873f60d2623f188c9e3e2d08d43f36ced93e54638b3f7d5ec03cc70b0d3f087d093f1aa7a63e4c06a13de2fdab
3f4b42d63c9b42353e7f1fad3f32cb4f3e5fad593f592ae93e5329c03e9019333f33dcbf3f7dd28c3f6dd1f33eae44713f43f1ee3e1a33523f249a563f13bbd43f6f7ebf3f46507d3e578f523c9a645d3eaaa3813f143b943f6c23ec3f567d763f1b92ba3ea2f4633d33b2bf3ea0ca023eade0bc3f66894b3d9c25583ea7170a3f3ccfdb3f3584f83f47ec7d3e8c4e993f086f023f2259413ea39c383f06b27e3e8c58fc3cbc6bdb3f4bc9213ea867823ef9453f3edfb58c3f707bb73f22995a3ed20dc93e07e5183ec92f793f6030083f4338083f0d87383d9bf7313e92cb073f13c9993f396d2a3f4411cf3e822eb53d47e19c3ed033a93f71220e3ec04d1a3e00c05c3e54da6f3f44996e3f3e14793dcc0ea33f7f34843f1098cf3f6e8fec3f73ff363e7ee6c53b9c26ab3efa2e2a3f0bae753f416f5c3f13811c3d8288253f1bcab93f24cb003e0e47f23f564ead3e0f9b5f3ef99e0a3f2c8b093f0528f93e7a2a8c3eddf3ae3ebfc7da39e9bbfd3ea6b1423e19e6173f4c63d83f2d689e3ece80493ecbbdd63f7932623f51ab693f0356c33e340ec33ea8879e3f7e93183eb676733f6ab1723ec0fd243f5371513f37d05e3e7bea553e9ca8773ec9b2573e91cd283f60f01d3f36a7d63f6919f13df5bc003f701ca93f4762573e8bc46e3f488df33f5d81703f77509b3f5960733e990b263e66b4e93f6a9e283f00b3da
3f6e7ecf3f1595ee3f7c10e33ee781d23c1cc2a73ddc31773e3044d53e85c8f83f55fbd83dd86f1d3d6e4d573f150b633ea184173ed7803c3f41bd153f24f2683efb7af13f2b87d43f1fbd8c3e864e113f5bc1cb3f2281e03ecbc0003da9375f3f5471a93f3afcfe3eaf8d213ead7eef3ea764f73f4526df3e6a5ae33f2040063f2b721b3f0da79b3e5324fb3ef7ea1c3f74b49b3dff6d323f0083f33e86b2b93e8ec6913f15e6613ea3eccf3f62309a3f3110053e9ce32a3f581d7b3f721e783f5b381f3f1d0d393ecc1f903f0c60763f287e233ed420bf3ef546633d658d3c3eb3a65c3f1d8fae3ded5dae3f242da13f1931503f6e26fd3b9a465b3e4a6aa13f56cdb93e8de6203f74aa183e17952d3f70ce4d3e88c5aa3f37d98f3e89a1e53ee88ee73f6989133dc846443eb8f4443ed4dcbc3f14c37b3ef7ce553f720b2c3f5bc16d3f1671d13f217a4d3f26a3ae3d83d0ca3f2303b93f0a6e613f1ae0423f72df333f058c553eaf97673eb000e73f1c950a3ed04cbe3ca8ed293f29797a3e0cacb03f783a403e34639b3e6174063f2d8eb53e876f4c3e0b2c403e8bccfa3e8f284b3df930583eabf2ef3f0dfe843f3583223f6f0c0b3e1449a53f2f54be3f0b106c3f6aa53d3f386c883ea6082e3ee289233efa0a3c3d59fc003f7f13b43e97388c3f12ad413f5d4b363d1a12133f574bd13f3b55623e9fe7043f25c636
3f3acbbe3dc876043e97b8263f6858e33f386c563e4520183f05860b3ebba2793f4461193f111e873da544c13ea993bb3ed92af23e05ca503f157c0c3f30bfdd3ef828f83ec462b53eb1725c3f2b6f0b3f298e483f4ea6223e92f0993f16fc1f3d84e9e23f4cc7553d0113203e402c683f27a4cd3d84f0063ebe92893ebed86c3f7861ac3f034a333ef4860a3f02bd323f1a56833f3d00643f18443b3e9ddd9e3f1ebf423f0f1a0e3ed5f1b83ea285053ea18fa53f1238fc3d93a0a83ebd17ee3f74f2493f1d2e7c3e26f6d63f7069e83e5d73c43f1d9bcc3e879c253f06c0943f310e9a3ea327ab3df57fe13ee234e93f6680cf3bda50d33e198eae3eb624f33f29ddd43e4b69243f59ec573ebe3de63e6f79553c822b173f5afdbd3ec1f97d3f54467f3e9e3e973ee2a8d53e9419103f3673433f6f7a133d92a6143ef106733f7e0dcc3efbc1f63eeadd1b3f7962923f49c98f3ea81f103f35aee23f480d7d3d9e15193ed9b8f33dfd87553f0abe213f0516103f530c663f4839703e444fe23f31bcd03f4af2dd3f6c24da3f5753a93eb95ad63e6d56613eded6ff39abf0d13ee8b5f83f67f45f3eee7ff43ebb02503f2af95c3f282b523ebc6f993f0fbdfe3e3d8af43f6b3cb43ee263b33e65c0be3e8044ee3f790eea3f1b47933f3c23ad3f73ff9f3e1155313f176dc43ef70cd73f662f203f3a785c3f74a1533f2ee4de
3ea406843eac3a463ed0e4863f1dbf3c3f4ab95d3ef6203d3e7168223f1044b23ee175da3e5a12983ebedbda3f5a22ea3f0bb3433e4cd0f13f5907ec3e19b7f13f13bbac3e0abdab3deba23e3f071bc43ea74c1e3f7bf2c43f0081013e827ad33f3fe78d3ec6dabc3f67f6773f7d317e3f7f617a3e9a9d8e3f1e9a323e6c0a9c3f68aa903f1aca0b3ed714853e78a51c3f5bdb4c3f64a79f3e744f583e3c0a583eaf692e3f0466c93f65acdd3e9630e53ee899f13f2150413f19972d3ed66e143ec5eaad3d2e8c4b3f5dead53f3b01a93f67bca23e1926893ba6f4ff3f3d7d2c3e19e4f53ecb97883f7519e63f18fb713ebb8b9b3f4b819f3f5da8953ec3e0173f17c2eb3da5cf823efeaee23eae9e653f51617e3de35a953f66346e3f753ffe3e0fdb7d3eed21353eb80e113eef81483f09c8d13e8bc1953e92751a3f0c7f973e780d003f1ae7e63f670dad3f6609483efd5fd63f074ae53e071e143e59cdd13bc6dfdf3ef2f6443e1618413ce130d03db8654a3f3f59263eacf2b63f1e2e4b3e8332ff3f02a8703f6593ad3f1e97463ee2b00a3f598ada3f47ddef3e8124253f7594993eb729003e6037963ef1ea113ee301193f1350d73effac883f66aee53f2d68153f06a1793ccaf3933e6ef21b3f2c582b3efc3cc03f42ad863eb52fdc3f36f04c3f0dad553f274b483ed625533e22a9f83da81cad3e0182843f448240
3f08e1563f754f7d3cd89d0b3eb3d5533f25d3333e8670973f43734e3e7713383f0a6f9d3e67a5c43c9f5ca83c2c73e93b987cf13ef3336e3f18c5463f26f53c3e8bb70e3e8914cc3e85f1df3f7d4b4c3f73212d3d94aa843e3fbd523f49d9ff3ce0e0ac3f56e9123f77f0c73f71bcaa3e2d09e73eec19c43f75197d3f28c29d3f6c68683f5adf9b3e3e8be53f206ca13f2342f73f726ba93df305903f217d0e3f61499c3eec014b3ee00bd23e37eb4e3ecf19613e6a430e3f08a0273f24c88c3f672bf13e112ef03eebbc613f02362e3f3016063f0d84f53f43ba8f3ec31ddd3f79de673e299a083ed75dd23f7bd23d3eec98853ca6309c3f5d95713f5b90873e9120e13f6409c93f3b9b5e3f0100eb3f4f74163d6ca8083f08803e3f7d07fd3f7139693f6f8b673c810eb43efda9263f676a473dc75cc43e938ab23f40c9083eaaa68f3d8bbc253f6ef42d3f0e9d8e3ec6ac6f3c082e163e7cfcf03f3b06913efba7da3f5ccb393f5dcedb3ee33b813f0433d53f5f8acc3e744e423f1ce5e33f11ab783f67ee633eb05d4f3f3013183dae4def3de4ea083f380ea93de568e13eaa31403ecda09b3eaad9233f6b456d3f34c3a43e2964ba3ef114df3e21c9e53f34dbab3edc74f33eeca7b43e3a65f93c8539383f0967133e9755193eda826a3ef504013f237ad83f2eae633e2315343f5847fa3eb668c33f0bd49b3ee68eed
3ed4df9b3e6d85e83f4658983d4a34403f431cee3da606a43f0ee2f53ca8db353e91ec803f493b053e9a56953f54bf593e06edf33f250f023f2db4a63f14f8503e97b0da3e2ae7f23f0700653da1e57f3e60c4523e9112fe3f6e89133f3f0ba33f738b583f58bb813f0bf2fe3ecf545e3f50b9293f0a772e3e4b6c813ea5d8363ef8ffba3f0fffbf3debcf0d3e418c613eacabd03f1641403e011a173ef1294f3f0c75953f177d783f44bebf3e2718b93daa7c993f09f4703f682b9d3e33ff0b3f2de7de3d9659b53e6e3dbb3f6801c93dc594223f408ddb3f788ecf3a159f163ef8058a3f6d39563ed1f0923f4b7ca83ec488913f1b32e13eed1e223f46249f3f377d853ea7d2793f680dc53f5d50623d9ecb8d3e6fd1a03e41866a3f7bfb143c681d4b3f1b6bdc3ea7ff473d2a74a43f54509f3f48a7f53eeab4073f0774873f15a1c03f03f95a3e38cf273f49ac3c3e0468a13f05fae03f4b4f463f7e34b23d6609af3ea0fdc63f1efca43ce879c33eb7b62a3f1fb5c13e55c9023f7d04de3f2ccb893f551c423e95959c3f3da27b3e10db513e9723fe3ee3bc493daad4943f7ca38c3d6fdb1c3ea5b41c3e06dd903ef4ed523e3449c63d08cb263f18bf6b3f574aaa3ee48dd93f0dd3cb3ec9b2563ea74b6d3e9c64143df06d0f3f6c95363f3359093ed094cd3e8d0ec93e4314933e14d1403f588d473f07e5e53f6ab247
3f6b42653e931a3b3ef09c7e3f7824d63e9d9db23f3b36733e4e3fb53f5df0013f13feae3eaf798a3dbde9c93e36d14f3f2e18703ec82b4e3f727ea03f17b4903f42058b3e2ce6413df963ac3ef9d7003e25ce5f3ee163d13f00d7ce3d342a133eb59b563ee2a3da3f74740a3e9452603f5771193f22916c3f4b6ac73f35825e3d746b523eda42c83d5110363f0ae6d23e4dc3d93e9d95f93f0083093e869de83deb2bb83f3438cc3df8e1be3e19dcc93f134a603f26c3123f70d09e3da531873f005f423d11ba0a3ef5ce133f4461023e1e7a1e3f2f24b33ed7ed653e9a26de3f3f27283f4544713e44ca1e3f4daa0f3e55d2553e2659063e49830b3f2c6eaf3f3eec7d3f76d50e3f6f35503eb024f43ebc85e63f01b3553f5a83b93e4f733d3f085bd23d3660283f1bc4ae3f5b27653ca8e0ea3e0130c13d7b1d473f0712883f34b3753ed77cfa3f15d7563e9f21203f28104d3f6001ec3d811b573f212e3a3cb298633f79e55a3f667cd33e5892073f6f39473ee18a823f71e1ec3f1ba7903eb08f943e0f5ccb3f464f893f59d90a3e336a3e3e567de33eff789a3ee0354a3f2c5dba3d1863d33ef93a403f19d4bf3e8bbed53f7557b73f5f56053c792d6c3ed32cb63f040dbe3cb90fc43e67a8463f4b0b263eaf05b83ee8e38e3f4cf8f93edbc5973f1c003c3da2c3ca3f72187c3b3a01ef3f5c79d53f40dddf3f2830b9
3f7710df3f00fbaf3f6ee4a23f4fc2a03ea1d7413f4d56003f2ab64d3f5808573cd4a6713dd49e793eb71a853eff19993cf39ddb3e0875f33e87fd5c3ed951ec3efd6b2d3e22e8dd3e1d9a8d3f2ea77e3f0d41e83ea73db03f382bf33ee04ba03f2c51dc3f22ce883e9323103f2a83543ecf4c9c3f5f57f33e35c7b43f4179713f0b77ee3ee02a173f27ddf03d470d003eb7781e3ef65cd43e3f57653f7b94a73f44c15d3ed067223f4c2eb53ef196c23dcb72fe3f76c07a3f3012c33f50849b3f25edc53f0f2b003ee02de53f02fc8c3ed887113f0bf5513d89029e3f149e443efe19ee3f799b523e73d6bf3edbe7233ed43ced3ed333cb3ef14c923f496e313f659cde3f6584203dfe8cb43e9dda323ec8e7963f7c3e743f773e483e6e9a283f18cc093f455de93f6822933f1ee8593f7268813f2963e93f2762313f2949c63f0b34c93e0e07563f6cfff03e0732a13dba891b3f5692be3f5c2c613ef843da3d42bca03e3d71243eed1f633f724d9b3e5fa9d83f56c0cd3f3e7b943f1387193ecc95b93f0330ae3ece63d33d4006203f060ddc3e393f183f13e9a83e841e6e3f7bcdb33e8bc8f03ef497763ea6dde23f5b5be43f04c2813ec728833eac93b53e44d5983f3dbc503f49ed0f3d574f133f0ea1c63ed5fbaf3f0454df3f013e8e3e7ac8583f77fd913deb44c03e8232f73ea808723ea3a7373f3a52ec3f66b413
3f04a3b13f32bdc63f2b57cf3ed507453f40063b3f1994e63f182b373e37dcb13ece941b3ed003063ea5fcc53ea1c8023ee02f6a3e0824fa3f1149ff3f29adf93f4208e43f14ed1f3eb25fce3f082ca13ee7b3393e0f027d3f6c61813f794fde3f6716643f4d85c63ec0ce3e3e6842873e016cdb3f349ef33f4b7a333ed670e83eca13a53f202f0d3f7dd6c83ea0137d3ebd7aa83ee8420a3df3760e3f7993103f78b0cf3d9e2b883f6557243e74dfb93dcd391f3ebb4f403f6667dd3ea4da8c3f1eb9493f379a833ed5999f3f4d46723ebf3b043f00aea13ef4c0b53f05d6273ee76b093ee7103d3d02437e3f713f003e7534783e1d42f93f2583d33f2355e73efeb2e33f0291083ee14f113f3ff18b3ea772063f3d61fe3ea674c53f54861f3f276d8a3e842f4b3e86ea463e5895cd3ee84bcc3ee1c0db3d3312213e7a806a3c9e61393ee63db23eae06253e8de01d3c859f703e811bb93e3706e13f55007d3cf4ead73ee849793dd55d9d3e0f22a33f29cde03e37d30d3cf864173f7bfb833f37c5eb3f3aa8703f16b90b3daf57c63f46033a3e104c563f2d8c833f1293203efee7553de6420e3f7582ed3eb780463f6ad83d3edbec723d5095223ee4260e3f6665603ce301f43f65b3ae3e9a8b5f3e7bd04e3f3c9ecb3e9f3f2d3f28c7673f0d32e73eb89e163e810ce63f2120e73f3012b73e57b3963f7a1fcb3f344877
3ea1d5913d9655623f324ade3f6a6b553ef280df3e0990cc3f6649cc3cece4393eb6db153f37dece3ef41c6e3f61517c3eb143053f5fdac33f699d343f3184053d3b16713db8271d3eaf2a733f7aaa983e7ec4513e7230803f4999db3c52fe353f46940b3f1d87e53ed325103db842753f5d63293ea48d253eb7d81c3f455b083f7477b53f38d5ea3f77994b3ed0bd833d94354d3f0162d13ac6e6903f4209203f247c973f0482a33d4179c93e98abbe3ef2c3eb3e5361513e5b407b3ebe234f3e9e37603daa80d03f661cec3eb8fc4e3f0cfa353f01cfaa3f543a753df49cb43dc3ce583f379f583f1ab3b03e1783203de9cfaf3f65e8cb3f6624e63e84191d3f68be0b3f369dbe3f6e984e3f1497ae3f196ce83f0a3ce33f46228c3f6e607e3ee2a3eb3d4bfdd63e6110723f5c45573ede2a0d3def865f3e8258ea3e9277913f7d4e6c3eccf2463f22dff63f2a6eeb3f1b37a83ed0a6773f2851713be89a743f2211293e2898983e37d03b3f4298d53d5fee033ed2f4493e9eacc43f1da5293f5bd0e03e47cfa03e8acefa3ec04e8a3e34a7133f7d31ad3f3cfccc3ebb10f33f109b213f60cf663f17f7f33e02376d3e58cbfb3ebcc13a3f06175f3f738c8d3f555fe43f3201913ede59a43f6859233e8ed25f3f1239b93f09cfe23efc1eba3ea983343e873e753f54b3383f1e95543d6994da3f692c343f2385563f098f05
3e4b958e3f293f9f3ecbdb163de465d83edae3ce3de85fcc3e8137bc3e05e3ce3f156cef3d8297d33eb516c43f33eac13e69e1143e880e973e5c15783f11e75f3f4771543e39e1a43f30f7c83ec841713ef50a4b3f7e12e73f6dd2853da9109e3f55614f3f08082e3e0632a73ee8b2ee3c5309123f499d8f3ec3d8273e0923933f1cef513e116bc43f364dfd3e82dfbc3e6a95ca3f71f27d3f632d873edd69013f3f32873eec9ba43ed2b15d3eb58d493f6e03e73dede9893f67482b3f6ce3153e0209273f575e403f1511b03e8fe7333f79138e3f6d07bb3ec789943f10618d3e8a012f3dfd453c3dc8c3703ea790573f44c91b3ddf93d23ea5d1613eec2bff3f197cca3f6f8efa3f5b51913e3aa8253f2908a83ddd5c243eb3442c3ecf40143f57db7d3f33f3a63f0a66833da439fb3db5dc9f3ec2a0a73ea684513eb00a013f30cf533f28839c3f638f163f3c2f2a3f19c09d3e75cdc13f56dbf73f535c1b3f13afd43dfa8f263f37c71e3e9a4a063ee85eb63f6600b63f3eb4b83f469d813dad81043f020ae53f6ec6233ddbc5cb3f458f1d3f07a82c3c2228383e1cb8f13d9dbb063f5c72d53edbc38d3f0bdc1c3f692ec63f6135f53e0e832a3f7ddd553f5bde263ea16b4c3f273c643f0766c23cf6cff03f24c6683eb90de43f666df83f28c80c3f1224e33f1aeb443dc2ec923f1c72c23ed9d5483e9c3a583e99c9d2
3eabf7a33e54e8a93e60e3333e2bc0753f7868613f79e3d13f5425e03f01055f3f5901ce3f292f433e438ebe3e8fa13d3ec7a12f3f0547f73f40b57a3f3a8e483f1bddaf3f66752c3e7d5abb3e8272573f0f40b03efb9b8a3db3200d3ec614ce3e3a2c183e70263e3d74d80b3e890b023f104eb93f44509e3db632e53f56ed653db141ce3db8d4ae3f6bb7ed3f5e49a83ed3f33b3f7b61f83e9cc0293f212fc73edb6c6b3ef146983e9a59ef3f22a4593e51ee353ef524b63e835e563dc032453da2fb053dac94373f3bf40b3efac25b3c361e153d8ad3b53e992d373f06cb853f744eb03f35af5f3dc50f523f2e8d903f5e99e53e8044683e99d0d23f4866a53ea8fbea3e23d3bb3efc1f3b3e0746403f787c893ee414d23f2f4fdc3ecc30d53eb693ea3f045d513f1bdcd53e5c917f3f3acb5e3f3c340e3eaedb0f3de516983e9faf513d564bd03e9b73413ea7c9b93dfe7d3b3f3201a53df077c23ed210f03f4791d83ee2c8fa3e6619293f1c10253f2bfc793d7ade113ee208903f4116663e7c2bf23f35ea2b3db323473eed497e3f35681d3f151f0a3eff0a023c36173c3f10de6f3f755a1c3f36a1a33f21a16a3d0c8ad13f2c24033f7947ea3f227b153f302aaf3f28c2283f24ada73f23bf2e3f4269ef3e2c6ed03f4028623efd52923e6b427e3e66df383ec9a30f3f491e913eae49b33eae0ed43f3566ea3f141207
3f3a23523f7597823f06b22c3eec26043e19d8cb3f2c8ad13f598cd33f4c5a223e18af613ed0ef053d6a01013c3e011e3ec99bb63eb61ec83f7057c23eb054ed3f46796d3f798feb3f47d65e3ed8aa0a3f5bf6303ec5cb913ec25cb23f27ea293f34eb553ee55ded3ea977ec3f2df9103f42ee173e4fcead3f72a2ba3eb554933f5e54253d2a5ac53eeaacfb3f1d8d783f0a23a73f310e893ea9b33a3ed730383cf959633f0481a33f296b4a3f4afd8d3f1566803dffac6f3f5dfa2c3d9d67833f5f3abc3ed1e65d3f57d6be3e51778a3eeb0b043f2a09153f36c5983f2be66a3efb217e3f39fd863f3031403ed90fed3f4a433a3f7fa17a3d25b2bd3f6c1c4e3ea47b6e3f02bb3d3f3422e73c6efb063f7c5cde3ee77e613f773d8e3f6bdf863b9f7d843eaef2e93e84b1973f4a99183f02c5ff3f6765743f122dae3e5cb79f3ebf45783f590ed63f344a393ece94cd3ec28f6b3eb285db3f4f7a863e824b2d3f7bbd003e4209f03d7399b63f7bc2d93f7a9a133f1cf3cd3e2f419a3f086a973e94ebf93d3d1b443e299a393e6590903e84d4893eb5fa4f3f1c77b83e9a3d4e3f0c9f6c3e9e6b313f030ce33f16ddba3f1daf953e4f71333f2722d93ed50eb53d1e08813ef7b6763f55eb833f530da03e5e73d93f285ac93f69f2943f554d303d29b6813eef04703f31a6593f4cb7b63f41e9513f0670403f3b29e13f49520d
3f486f5c3f55ed183eaa51873f4ba6133e8650083eea37463f178dc33f4da4973f32f86c3f3006123d3ef6d63ca2f0f83ebe6a193f6eea243f46713c3f678e813f27fcef3f3a86d63ed950163b707a703c88e0dc3f3ed5b43e0420a03f2125633e9e19a53ed945473f2797663f634a3c3e9175743f2a7efb3e671ca93f65aa3b3f66f4c23f3b1f093db4e3e83b7b63ed3f7d9a713e1fbe553f7798bb3e9389733f47b2eb3db98dd03eea13303f14846b3f0cdeb63df627a03f3f680e3ec25ac33f4468b93e3d3ab63f589ed13f6268ab3f3ff5773da046d33ebfaf8c3f56c3523f3b387e3ee228ce3f31636b3a283af23f0f04d23e1775ba3e61bc893f1685f83f7df67e3f0a9b123e82b8993eff17e73d7736d43e7005373f732fb63b6f69363f5950503f7b48c43edf22ef3f791a273be2a0153d7be9dd3f33b86f3edce3613f34249e3ec56ec53f22b1273f40ce913f18fcc53ee3f10c3e00ee043f488be53f40a18b3f14d3843f0611733e44c6c53d82c5f43f5693383f7cea703f64d84f3e98e67c3e76952b3ee274df3f4147b33e21cee83f19ef833f404b5e3f6fcc493f0e0ef53e92854a3e00f0a53f786df73cda31b13f0a31903e7143143de6e43a3f36b3713f3fbb803f31a1183e57b88c3ef5a1b33f183aad3d2d44693e0d81d73c459ac43eb45a783f30bdaa3e1b91973f78bcad3e3df92c3db9add13ea1821b
3f41da3e3f27af9a3e74e0aa3f4b2cf03f7a14413f082f813f1d00973f5c2a153f4ed18d3f69f0b13f7ffc533f3ebca53edffc2f3c04f4013d8c0c7a3f3f69753f61ba5d3ec22e2b3e2684673dd5a4f73e983a9e3f2e43ba3ed885753f0a013d3f339d843e5529903efb53bc3ea971c83da2ace53f3cd7913e5ee7c53ebdda073def7c6e3e85bdc93f672f373e938dac3e3800a03ec219903f701cf33d947d073d8465603df2184d3ec9e0963ee266703ee69b9f3de68ba83f4af4623e8bfa773ec2e6ca3e92c3b73dc9fe723f7e41f43f5092c63eea9bc33ea566433e44550d3f6411d53f0f6fcb3f220a993f1bc5e53efd221e3e2442d03f3a6aa23d2802843f4ee50e3c16f95f3d15cb733f352ad43f07d3f93f39119d3ea061703d14665a3cf38d343e2a9c1e3e54391e3ac33b2c3f22515a3c00324f3e1af8593e0256983eb274bf3f6069153d6b13cf3ecd45753dfd58f83bef107d3e1a94183cb3145c3f2bc3503f07cf7d3f7f09b33f357b0f3ef8a9263f0df48b3eb2599d3f6ed18d3f34ca293f212cee3e86f69c3f2988e93e8c89113e32d63a3f7485d63e8303ab3f70d3253f43a7593ed2d36a3f28c0643e00e0b33f50c0413f4a01733f6798223f5d1e7b3f6b192a3e9b36a03e9f7f943ea674b73f6fc0fe3f7a96263f72e2a53e7754523f5167f73f4291573e85078f3f09c0213f6ad8573f254fba3ecccdfe
